<pad>	0
<start>	0
<end>	0
<unk>	0
▁a	-0
▁o	-1
▁t	-2
▁s	-3
in	-4
it	-5
▁c	-6
▁b	-7
▁w	-8
er	-9
▁p	-10
▁of	-11
re	-12
▁th	-13
le	-14
nd	-15
ing	-16
la	-17
▁on	-18
on	-19
en	-20
▁the	-21
▁f	-22
ith	-23
▁with	-24
is	-25
ck	-26
▁co	-27
ar	-28
▁and	-29
▁d	-30
at	-31
▁h	-32
ro	-33
▁m	-34
lo	-35
an	-36
ic	-37
▁is	-38
▁in	-39
ed	-40
▁bo	-41
al	-42
or	-43
▁to	-44
ter	-45
es	-46
▁wh	-47
ite	-48
▁g	-49
ag	-50
el	-51
▁white	-52
▁sh	-53
ack	-54
▁la	-55
ab	-56
om	-57
reen	-58
ow	-59
mp	-60
as	-61
tt	-62
▁re	-63
▁n	-64
oo	-65
▁it	-66
et	-67
▁bla	-68
ur	-69
able	-70
▁sc	-71
st	-72
age	-73
ont	-74
▁black	-75
ion	-76
up	-77
ra	-78
lu	-79
▁comp	-80
▁an	-81
ig	-82
ood	-83
▁screen	-84
ce	-85
▁table	-86
▁that	-87
▁st	-88
uter	-89
un	-90
il	-91
▁l	-92
▁computer	-93
▁bott	-94
id	-95
ct	-96
ol	-97
ir	-98
▁som	-99
ers	-100
▁k	-101
▁bottle	-102
▁blu	-103
▁sit	-104
ch	-105
▁can	-106
▁ch	-107
▁show	-108
▁blue	-109
▁top	-110
▁some	-111
ut	-112
▁box	-113
▁be	-114
and	-115
all	-116
ting	-117
ot	-118
▁pack	-119
ain	-120
▁v	-121
op	-122
ard	-123
▁pla	-124
ure	-125
▁back	-126
ap	-127
ex	-128
old	-129
▁sitting	-130
▁cont	-131
und	-132
us	-133
ver	-134
one	-135
▁i	-136
▁up	-137
igh	-138
▁red	-139
ext	-140
ent	-141
ie	-142
▁se	-143
▁le	-144
ind	-145
ide	-146
low	-147
ad	-148
▁or	-149
bo	-150
top	-151
▁e	-152
▁pers	-153
ok	-154
▁person	-155
▁wood	-156
ight	-157
round	-158
▁has	-159
▁for	-160
▁clo	-161
▁hand	-162
▁hold	-163
ture	-164
▁y	-165
row	-166
▁fr	-167
▁contain	-168
bel	-169
ying	-170
ss	-171
▁pic	-172
▁picture	-173
am	-174
▁lap	-175
▁package	-176
▁green	-177
▁showing	-178
ip	-179
▁coun	-180
▁r	-181
▁lo	-182
▁colo	-183
ve	-184
▁counter	-185
▁label	-186
ace	-187
art	-188
▁holding	-189
▁fro	-190
th	-191
ey	-192
▁front	-193
ear	-194
▁dis	-195
ge	-196
pp	-197
▁pro	-198
▁food	-199
ff	-200
▁sm	-201
▁sur	-202
▁key	-203
▁des	-204
▁so	-205
▁laptop	-206
▁ro	-207
ice	-208
red	-209
▁surf	-210
▁wind	-211
▁brow	-212
▁surface	-213
▁wooden	-214
▁window	-215
▁sp	-216
ground	-217
se	-218
▁brown	-219
▁pap	-220
▁j	-221
qu	-222
▁im	-223
board	-224
stic	-225
▁li	-226
▁background	-227
ink	-228
rit	-229
▁plastic	-230
▁op	-231
ul	-232
pla	-233
▁de	-234
▁small	-235
▁yel	-236
▁yellow	-237
um	-238
▁paper	-239
▁ph	-240
▁sa	-241
▁image	-242
ation	-243
led	-244
air	-245
▁container	-246
ort	-247
▁from	-248
▁displa	-249
▁do	-250
ee	-251
ine	-252
▁are	-253
ick	-254
ak	-255
ark	-256
▁pie	-257
ric	-258
▁flo	-259
▁someone	-260
▁mon	-261
▁text	-262
▁app	-263
irt	-264
itor	-265
▁open	-266
▁monitor	-267
▁side	-268
▁next	-269
▁keyboard	-270
▁bag	-271
uct	-272
▁bra	-273
▁desk	-274
▁mo	-275
▁tw	-276
▁color	-277
▁di	-278
▁bu	-279
▁shirt	-280
▁piece	-281
▁close	-282
▁cor	-283
▁wall	-284
▁part	-285
▁car	-286
▁brand	-287
▁floor	-288
ffee	-289
▁two	-290
▁coffee	-291
▁book	-292
ys	-293
ft	-294
ner	-295
▁te	-296
▁light	-297
▁laying	-298
ly	-299
ry	-300
▁fab	-301
▁fabric	-302
ug	-303
lect	-304
▁po	-305
▁by	-306
▁dark	-307
co	-308
ray	-309
ect	-310
▁card	-311
ath	-312
▁ma	-313
ions	-314
ill	-315
▁man	-316
▁out	-317
ell	-318
▁room	-319
im	-320
side	-321
lass	-322
▁wor	-323
▁colored	-324
▁gre	-325
▁sil	-326
▁fla	-327
▁pink	-328
▁silver	-329
▁al	-330
▁un	-331
ere	-332
▁cle	-333
ess	-334
▁windows	-335
▁at	-336
▁shown	-337
lar	-338
use	-339
ted	-340
item	-341
▁item	-342
sh	-343
▁writ	-344
ble	-345
▁ob	-346
ment	-347
tter	-348
ke	-349
ase	-350
own	-351
▁pe	-352
iz	-353
are	-354
▁wear	-355
▁phone	-356
ts	-357
eet	-358
rip	-359
▁cloth	-360
tton	-361
▁prod	-362
ater	-363
ple	-364
▁pr	-365
▁glass	-366
ject	-367
▁grey	-368
▁product	-369
io	-370
ang	-371
▁abo	-372
▁wearing	-373
ign	-374
▁he	-375
ange	-376
itch	-377
▁nut	-378
▁look	-379
▁button	-380
ans	-381
▁rest	-382
▁object	-383
ph	-384
te	-385
vice	-386
▁see	-387
▁cup	-388
eld	-389
▁lar	-390
ial	-391
ree	-392
▁elect	-393
▁large	-394
pe	-395
▁inst	-396
▁one	-397
▁me	-398
▁cover	-399
▁orange	-400
ds	-401
▁bed	-402
▁pur	-403
est	-404
▁as	-405
▁display	-406
▁not	-407
▁page	-408
▁1	-409
hing	-410
▁letter	-411
ile	-412
▁down	-413
▁2	-414
iew	-415
▁bar	-416
zen	-417
▁device	-418
ri	-419
▁like	-420
ram	-421
▁frozen	-422
▁tv	-423
ber	-424
▁right	-425
▁nutrit	-426
▁soup	-427
ich	-428
▁che	-429
▁nutrition	-430
for	-431
▁view	-432
itchen	-433
▁kitchen	-434
ther	-435
▁clear	-436
ato	-437
ore	-438
▁sits	-439
▁br	-440
▁stand	-441
▁us	-442
ress	-443
▁yo	-444
▁other	-445
ned	-446
▁cap	-447
▁chick	-448
ced	-449
▁cre	-450
ast	-451
▁gray	-452
▁prin	-453
▁appear	-454
▁chicken	-455
▁held	-456
ay	-457
▁en	-458
ix	-459
▁sw	-460
▁being	-461
▁fa	-462
▁shows	-463
uch	-464
▁ty	-465
oto	-466
▁ar	-467
▁displaying	-468
ong	-469
form	-470
ish	-471
▁photo	-472
ist	-473
▁sort	-474
▁purple	-475
▁appears	-476
ub	-477
rol	-478
ant	-479
▁num	-480
▁qu	-481
▁off	-482
▁ne	-483
▁set	-484
▁says	-485
mpt	-486
onic	-487
▁med	-488
▁dog	-489
▁read	-490
▁strip	-491
▁mic	-492
▁left	-493
pet	-494
▁packag	-495
▁carpet	-496
ach	-497
les	-498
tion	-499
ave	-500
ies	-501
nk	-502
▁which	-503
▁containing	-504
▁cur	-505
▁control	-506
ire	-507
▁cook	-508
▁but	-509
▁placed	-510
▁door	-511
▁blank	-512
amp	-513
▁their	-514
▁bottom	-515
▁inform	-516
ren	-517
▁chair	-518
mo	-519
▁we	-520
ronic	-521
▁electronic	-522
▁log	-523
▁corner	-524
▁ho	-525
▁information	-526
ult	-527
ding	-528
▁inside	-529
▁din	-530
▁about	-531
▁gold	-532
▁pot	-533
▁sau	-534
▁ver	-535
▁was	-536
▁its	-537
▁pan	-538
▁mess	-539
▁pat	-540
ruct	-541
▁case	-542
▁cream	-543
ten	-544
▁flow	-545
ame	-546
▁sever	-547
de	-548
▁met	-549
▁type	-550
ate	-551
▁bl	-552
▁jar	-553
ian	-554
▁over	-555
▁this	-556
▁buttons	-557
▁cho	-558
▁mar	-559
ving	-560
▁leg	-561
▁hang	-562
dy	-563
▁water	-564
▁tur	-565
▁writing	-566
▁looks	-567
▁somet	-568
▁ag	-569
▁cd	-570
▁near	-571
▁something	-572
▁ve	-573
▁rem	-574
▁medic	-575
▁sy	-576
▁mult	-577
em	-578
▁what	-579
▁sheet	-580
▁cr	-581
▁ra	-582
rees	-583
ld	-584
ote	-585
▁sauce	-586
▁mix	-587
▁tom	-588
▁dr	-589
ents	-590
if	-591
ake	-592
ese	-593
▁several	-594
ade	-595
▁instruct	-596
▁gr	-597
▁tan	-598
▁dinner	-599
▁lying	-600
▁message	-601
▁written	-602
▁ac	-603
▁pre	-604
▁microw	-605
get	-606
▁fe	-607
▁tomato	-608
ffer	-609
tain	-610
▁ad	-611
tern	-612
▁flav	-613
▁remote	-614
▁words	-615
▁again	-616
▁blanket	-617
▁sk	-618
▁spe	-619
▁couch	-620
▁bright	-621
▁against	-622
ome	-623
ook	-624
ass	-625
▁con	-626
ive	-627
▁empt	-628
▁metal	-629
ather	-630
▁empty	-631
ac	-632
▁fact	-633
▁ther	-634
▁fram	-635
▁tele	-636
ious	-637
▁dol	-638
▁standing	-639
▁tr	-640
▁beans	-641
▁pictured	-642
▁instructions	-643
alk	-644
ity	-645
▁fo	-646
most	-647
▁sho	-648
▁tin	-649
phone	-650
hind	-651
▁vis	-652
▁house	-653
▁items	-654
fferent	-655
▁behind	-656
▁different	-657
▁mac	-658
▁liqu	-659
▁apple	-660
ull	-661
ning	-662
▁var	-663
▁web	-664
▁wra	-665
▁packet	-666
ue	-667
ible	-668
▁gra	-669
▁facts	-670
ust	-671
her	-672
▁cord	-673
let	-674
ush	-675
▁squ	-676
▁cell	-677
▁countertop	-678
▁ser	-679
▁packaging	-680
▁cand	-681
▁hanging	-682
▁sn	-683
▁displayed	-684
▁sto	-685
▁three	-686
ature	-687
▁keys	-688
▁tim	-689
▁wom	-690
▁very	-691
▁ed	-692
▁logo	-693
▁cheese	-694
▁microwave	-695
av	-696
▁leather	-697
ular	-698
▁pen	-699
vis	-700
▁hal	-701
▁pop	-702
▁sign	-703
▁je	-704
▁kn	-705
▁cal	-706
▁pow	-707
▁port	-708
▁tea	-709
▁pair	-710
▁stick	-711
me	-712
ror	-713
▁sup	-714
▁tow	-715
▁made	-716
ia	-717
book	-718
▁bill	-719
vision	-720
der	-721
▁flat	-722
▁television	-723
room	-724
▁resting	-725
elf	-726
▁here	-727
▁letters	-728
▁z	-729
▁ex	-730
▁fing	-731
▁printed	-732
▁dig	-733
▁turned	-734
▁various	-735
cola	-736
ital	-737
▁men	-738
▁wine	-739
▁liquid	-740
cor	-741
▁bow	-742
▁home	-743
▁wrapp	-744
▁chocola	-745
▁lettering	-746
ings	-747
▁rug	-748
▁blur	-749
▁half	-750
▁used	-751
▁und	-752
▁you	-753
da	-754
▁no	-755
▁chil	-756
▁kind	-757
▁above	-758
▁veget	-759
stem	-760
▁com	-761
▁meal	-762
▁prog	-763
mostat	-764
▁thermostat	-765
ib	-766
▁old	-767
▁design	-768
▁desktop	-769
gg	-770
atch	-771
ened	-772
▁cen	-773
▁center	-774
▁dollar	-775
▁contains	-776
ating	-777
▁under	-778
▁system	-779
▁er	-780
▁bre	-781
▁fil	-782
▁rep	-783
lic	-784
tch	-785
redi	-786
▁ing	-787
▁ingredi	-788
ven	-789
ated	-790
▁round	-791
▁digital	-792
▁looking	-793
raw	-794
uit	-795
bers	-796
▁per	-797
▁chocolate	-798
ally	-799
▁all	-800
▁start	-801
▁seen	-802
▁dress	-803
▁there	-804
▁flowers	-805
idd	-806
▁opened	-807
be	-808
to	-809
ige	-810
▁dv	-811
▁cro	-812
▁bowl	-813
▁fore	-814
▁head	-815
▁square	-816
▁vegetable	-817
so	-818
ugh	-819
▁number	-820
▁cam	-821
▁full	-822
▁wire	-823
▁nutritional	-824
▁pill	-825
▁error	-826
▁woman	-827
ale	-828
ash	-829
▁drink	-830
▁numbers	-831
▁20	-832
▁lit	-833
▁mach	-834
▁many	-835
▁3	-836
ages	-837
iple	-838
▁curren	-839
▁repair	-840
▁machine	-841
▁multiple	-842
af	-843
log	-844
ral	-845
▁body	-846
▁camp	-847
▁hair	-848
▁beige	-849
▁mouse	-850
▁gi	-851
▁stove	-852
▁trees	-853
shot	-854
▁play	-855
▁soda	-856
▁unop	-857
▁unopened	-858
ne	-859
oon	-860
▁sal	-861
▁tub	-862
iddle	-863
▁middle	-864
▁pattern	-865
▁4	-866
bell	-867
▁chip	-868
▁mus	-869
lee	-870
▁dri	-871
▁meat	-872
uff	-873
▁arm	-874
▁dvd	-875
▁desc	-876
▁power	-877
▁striped	-878
▁min	-879
▁potato	-880
▁visible	-881
▁campbell	-882
cks	-883
ger	-884
per	-885
ical	-886
oney	-887
rist	-888
unch	-889
▁new	-890
▁game	-891
▁math	-892
▁ce	-893
iling	-894
▁buil	-895
▁long	-896
▁tile	-897
▁frame	-898
▁mater	-899
▁material	-900
way	-901
▁bee	-902
▁cat	-903
▁lin	-904
▁cart	-905
▁past	-906
▁jeans	-907
▁towel	-908
ons	-909
illa	-910
▁ind	-911
▁lid	-912
▁face	-913
▁barco	-914
▁clean	-915
▁quest	-916
▁ground	-917
▁ingredients	-918
ser	-919
▁ref	-920
▁ste	-921
▁plan	-922
▁sing	-923
▁cab	-924
▁foo	-925
▁sty	-926
▁10	-927
▁sl	-928
▁blurry	-929
▁outside	-930
▁medicine	-931
aker	-932
tcha	-933
▁plu	-934
cy	-935
os	-936
▁beef	-937
▁slee	-938
▁shelf	-939
▁barcode	-940
ces	-941
▁col	-942
▁time	-943
▁captcha	-944
pad	-945
ped	-946
▁who	-947
era	-948
▁sun	-949
▁short	-950
▁living	-951
▁lotion	-952
▁electric	-953
▁7	-954
▁tra	-955
▁around	-956
▁portion	-957
▁am	-958
▁bas	-959
▁edge	-960
▁hard	-961
▁camera	-962
▁att	-963
▁pain	-964
▁building	-965
ored	-966
ition	-967
▁moun	-968
▁plate	-969
az	-970
ps	-971
▁5	-972
irc	-973
blem	-974
▁run	-975
▁butter	-976
iv	-977
▁air	-978
▁char	-979
▁circ	-980
▁single	-981
▁ic	-982
atur	-983
▁dish	-984
▁fold	-985
▁pasta	-986
▁spray	-987
min	-988
▁van	-989
▁bath	-990
▁word	-991
▁chips	-992
▁flavored	-993
▁screenshot	-994
▁mug	-995
▁val	-996
▁area	-997
▁note	-998
▁shap	-999
▁work	-1000
ud	-1001
▁low	-1002
▁siz	-1003
berry	-1004
▁foot	-1005
▁stre	-1006
▁tube	-1007
▁clothing	-1008
▁cardboard	-1009
▁legs	-1010
▁them	-1011
▁child	-1012
▁store	-1013
▁flower	-1014
ful	-1015
sed	-1016
▁sink	-1017
▁soft	-1018
▁clock	-1019
▁partial	-1020
mb	-1021
ance	-1022
other	-1023
▁menu	-1024
▁finger	-1025
▁bottles	-1026
▁problem	-1027
he	-1028
ork	-1029
iled	-1030
ross	-1031
▁art	-1032
▁hot	-1033
▁pil	-1034
▁decor	-1035
▁called	-1036
▁filled	-1037
▁office	-1038
ary	-1039
ping	-1040
▁gar	-1041
▁his	-1042
▁four	-1043
▁rice	-1044
▁across	-1045
▁flavor	-1046
▁go	-1047
inet	-1048
▁her	-1049
▁pillow	-1050
ail	-1051
cing	-1052
▁big	-1053
tions	-1054
tting	-1055
▁gran	-1056
sp	-1057
rect	-1058
▁bro	-1059
ctang	-1060
▁good	-1061
▁into	-1062
▁star	-1063
▁tree	-1064
plement	-1065
▁cabinet	-1066
▁rectang	-1067
▁supplement	-1068
cess	-1069
▁sky	-1070
▁running	-1071
ca	-1072
mon	-1073
▁mag	-1074
ached	-1075
▁dell	-1076
▁peop	-1077
▁pants	-1078
▁floral	-1079
▁colorful	-1080
▁inc	-1081
▁cola	-1082
▁boxes	-1083
▁direct	-1084
▁deg	-1085
▁toy	-1086
▁cans	-1087
▁holds	-1088
▁watch	-1089
▁people	-1090
▁another	-1091
▁macbook	-1092
▁attached	-1093
ball	-1094
▁cond	-1095
▁corn	-1096
▁fruit	-1097
▁sweet	-1098
▁vanilla	-1099
ilk	-1100
ise	-1101
urn	-1102
▁ju	-1103
▁ask	-1104
▁have	-1105
▁cable	-1106
▁degrees	-1107
▁sticker	-1108
su	-1109
ual	-1110
▁exp	-1111
▁draw	-1112
▁name	-1113
▁cooking	-1114
▁startup	-1115
▁vegetables	-1116
tle	-1117
▁nood	-1118
▁pepp	-1119
▁poss	-1120
▁shin	-1121
▁walk	-1122
▁style	-1123
▁blo	-1124
▁tag	-1125
▁temp	-1126
▁prompt	-1127
▁tablet	-1128
▁check	-1129
▁ceiling	-1130
▁curtain	-1131
ng	-1132
clo	-1133
izz	-1134
ump	-1135
ideo	-1136
read	-1137
velo	-1138
ction	-1139
▁unit	-1140
▁music	-1141
▁smart	-1142
▁envelo	-1143
less	-1144
▁lot	-1145
▁mov	-1146
▁too	-1147
▁use	-1148
▁park	-1149
▁shoe	-1150
▁board	-1151
▁inclu	-1152
▁print	-1153
▁video	-1154
▁bes	-1155
▁oven	-1156
▁along	-1157
▁canned	-1158
▁cookies	-1159
▁diet	-1160
▁salt	-1161
▁pills	-1162
▁colors	-1163
na	-1164
ool	-1165
▁tak	-1166
ampoo	-1167
ereal	-1168
▁pizz	-1169
▁candy	-1170
▁snack	-1171
erature	-1172
▁cereal	-1173
▁covered	-1174
▁shampoo	-1175
▁temperature	-1176
alog	-1177
lend	-1178
▁ban	-1179
▁cig	-1180
▁sug	-1181
▁boot	-1182
▁heal	-1183
▁shot	-1184
▁pizza	-1185
▁ready	-1186
▁playing	-1187
mas	-1188
ices	-1189
▁tit	-1190
▁coup	-1191
▁soap	-1192
▁stripes	-1193
ob	-1194
sc	-1195
gra	-1196
man	-1197
ates	-1198
ware	-1199
▁may	-1200
arett	-1201
▁base	-1202
▁milk	-1203
▁seas	-1204
▁micro	-1205
▁asking	-1206
▁christ	-1207
▁cigarett	-1208
ung	-1209
▁bur	-1210
▁panel	-1211
▁peach	-1212
▁stuff	-1213
▁beside	-1214
▁season	-1215
▁wrapped	-1216
iss	-1217
ves	-1218
▁rece	-1219
▁well	-1220
▁health	-1221
▁progress	-1222
int	-1223
rib	-1224
▁equ	-1225
▁few	-1226
▁fire	-1227
▁webs	-1228
▁crock	-1229
▁sidew	-1230
ription	-1231
▁program	-1232
ific	-1233
▁coca	-1234
▁code	-1235
▁date	-1236
▁reads	-1237
▁packaged	-1238
fa	-1239
rink	-1240
▁clu	-1241
rough	-1242
▁mark	-1243
▁enter	-1244
lection	-1245
▁marble	-1246
▁christmas	-1247
▁directions	-1248
▁medication	-1249
▁rectangular	-1250
yl	-1251
ler	-1252
amin	-1253
▁bak	-1254
▁dial	-1255
▁your	-1256
▁sugar	-1257
▁street	-1258
▁through	-1259
▁website	-1260
▁currency	-1261
▁sub	-1262
▁most	-1263
▁pictures	-1264
ngu	-1265
▁jo	-1266
cket	-1267
ence	-1268
▁del	-1269
▁pol	-1270
▁yog	-1271
cloth	-1272
ially	-1273
▁dirt	-1274
▁feet	-1275
▁make	-1276
▁below	-1277
▁bunch	-1278
▁icons	-1279
▁tiled	-1280
een	-1281
ved	-1282
▁hum	-1283
▁sea	-1284
▁war	-1285
▁ball	-1286
▁blind	-1287
▁langu	-1288
▁candle	-1289
▁cartoon	-1290
▁envelope	-1291
oni	-1292
arch	-1293
▁swe	-1294
▁high	-1295
▁drive	-1296
▁juice	-1297
▁movie	-1298
ai	-1299
etw	-1300
ium	-1301
ula	-1302
▁ca	-1303
▁ke	-1304
ibly	-1305
icle	-1306
ones	-1307
▁dry	-1308
beled	-1309
▁pass	-1310
▁lemon	-1311
aturing	-1312
▁upside	-1313
▁featuring	-1314
▁partially	-1315
ll	-1316
▁cl	-1317
ster	-1318
▁bir	-1319
▁day	-1320
lumin	-1321
▁knob	-1322
▁honey	-1323
▁multi	-1324
▁search	-1325
▁labeled	-1326
▁bathroom	-1327
▁possibly	-1328
▁tablecloth	-1329
kin	-1330
ory	-1331
▁cut	-1332
▁end	-1333
▁ext	-1334
▁fan	-1335
▁rec	-1336
▁beer	-1337
▁gift	-1338
▁skin	-1339
itamin	-1340
▁rests	-1341
▁displays	-1342
ipt	-1343
▁har	-1344
▁reco	-1345
▁spec	-1346
ations	-1347
▁grass	-1348
▁plant	-1349
▁shoes	-1350
▁pepper	-1351
▁shaped	-1352
▁shorts	-1353
▁reading	-1354
uc	-1355
▁8	-1356
ely	-1357
oli	-1358
out	-1359
urt	-1360
▁how	-1361
▁par	-1362
graph	-1363
▁dialog	-1364
▁clothes	-1365
▁washing	-1366
▁language	-1367
kn	-1368
aur	-1369
els	-1370
▁ey	-1371
gged	-1372
▁bel	-1373
▁test	-1374
aurant	-1375
▁whole	-1376
▁facing	-1377
▁yogurt	-1378
▁questions	-1379
▁restaurant	-1380
od	-1381
ala	-1382
uck	-1383
▁el	-1384
▁fi	-1385
eric	-1386
▁hor	-1387
▁rad	-1388
aster	-1389
▁fish	-1390
▁free	-1391
▁laid	-1392
▁size	-1393
▁choice	-1394
▁player	-1395
▁objects	-1396
▁vitamin	-1397
▁including	-1398
bur	-1399
ket	-1400
▁mat	-1401
▁reg	-1402
▁sch	-1403
▁disc	-1404
▁furn	-1405
▁crack	-1406
▁magaz	-1407
▁closed	-1408
▁plugged	-1409
▁cigarettes	-1410
ded	-1411
hol	-1412
rench	-1413
▁cush	-1414
terned	-1415
▁stain	-1416
▁value	-1417
▁wrink	-1418
▁compan	-1419
▁folded	-1420
▁iphone	-1421
▁current	-1422
▁options	-1423
▁patterned	-1424
ays	-1425
gan	-1426
gle	-1427
▁fre	-1428
▁human	-1429
▁stack	-1430
▁fingers	-1431
▁tomatoes	-1432
umb	-1433
ured	-1434
▁lis	-1435
▁pad	-1436
▁whe	-1437
iture	-1438
known	-1439
▁class	-1440
▁dirty	-1441
▁spice	-1442
▁where	-1443
▁little	-1444
▁granite	-1445
▁receipt	-1446
▁unknown	-1447
▁furniture	-1448
▁photograph	-1449
ka	-1450
ots	-1451
izer	-1452
▁betw	-1453
▁lies	-1454
▁neck	-1455
▁graph	-1456
▁shiny	-1457
▁french	-1458
▁between	-1459
▁children	-1460
alm	-1461
▁12	-1462
aves	-1463
▁100	-1464
▁eas	-1465
acter	-1466
▁anim	-1467
▁been	-1468
▁post	-1469
▁sand	-1470
▁sofa	-1471
▁talk	-1472
▁grain	-1473
▁hands	-1474
▁money	-1475
luminum	-1476
▁golden	-1477
▁foreign	-1478
▁aluminum	-1479
▁magazine	-1480
▁question	-1481
▁il	-1482
aghe	-1483
ider	-1484
▁ass	-1485
▁ent	-1486
▁hel	-1487
▁line	-1488
▁roll	-1489
aghett	-1490
▁basket	-1491
▁leaves	-1492
▁company	-1493
▁mounted	-1494
▁software	-1495
▁spaghett	-1496
ms	-1497
▁0	-1498
als	-1499
ene	-1500
ipe	-1501
ries	-1502
▁gro	-1503
▁seat	-1504
▁touch	-1505
▁americ	-1506
▁chairs	-1507
▁couple	-1508
▁garlic	-1509
▁papers	-1510
▁spaghetti	-1511
aw	-1512
gy	-1513
ied	-1514
vert	-1515
▁las	-1516
ading	-1517
▁cups	-1518
▁ipad	-1519
▁lamp	-1520
▁brick	-1521
▁lines	-1522
▁roast	-1523
▁advert	-1524
▁handle	-1525
▁images	-1526
▁pieces	-1527
▁sealed	-1528
▁dresser	-1529
▁instant	-1530
▁noodles	-1531
▁entertain	-1532
inal	-1533
ling	-1534
▁bus	-1535
ident	-1536
▁shad	-1537
▁great	-1538
▁radio	-1539
▁lights	-1540
▁install	-1541
▁printer	-1542
▁process	-1543
▁section	-1544
▁description	-1545
cre	-1546
ics	-1547
nect	-1548
▁bab	-1549
▁cer	-1550
▁dep	-1551
▁eat	-1552
▁ten	-1553
▁prep	-1554
▁heart	-1555
▁lasag	-1556
▁plain	-1557
▁still	-1558
▁upper	-1559
▁applic	-1560
▁restore	-1561
▁mountain	-1562
▁progresso	-1563
▁seasoning	-1564
▁6	-1565
ams	-1566
cle	-1567
ley	-1568
uld	-1569
ards	-1570
ator	-1571
very	-1572
▁201	-1573
▁cas	-1574
▁ice	-1575
▁file	-1576
▁lays	-1577
▁fresh	-1578
▁lower	-1579
▁while	-1580
▁pocket	-1581
▁cleaner	-1582
▁connect	-1583
▁describ	-1584
▁setting	-1585
▁circular	-1586
▁currently	-1587
▁foreground	-1588
▁smartphone	-1589
fo	-1590
ina	-1591
irl	-1592
key	-1593
unk	-1594
▁lu	-1595
urig	-1596
▁bat	-1597
neath	-1598
▁cann	-1599
▁each	-1600
▁orig	-1601
▁tick	-1602
▁bread	-1603
▁intern	-1604
▁keurig	-1605
▁warning	-1606
▁painting	-1607
▁underneath	-1608
▁entertainment	-1609
nt	-1610
▁x	-1611
avy	-1612
nds	-1613
set	-1614
▁pc	-1615
mbol	-1616
▁tab	-1617
light	-1618
▁easy	-1619
▁list	-1620
▁pump	-1621
▁road	-1622
▁stra	-1623
▁wash	-1624
▁books	-1625
▁flash	-1626
▁straw	-1627
▁symbol	-1628
▁wrapper	-1629
▁potatoes	-1630
sw	-1631
eds	-1632
ens	-1633
▁gu	-1634
▁wo	-1635
ndar	-1636
place	-1637
▁cale	-1638
▁coke	-1639
▁gard	-1640
▁ring	-1641
▁baked	-1642
▁place	-1643
▁scale	-1644
▁steak	-1645
▁trans	-1646
▁wires	-1647
▁framed	-1648
▁shower	-1649
▁ticket	-1650
▁clutter	-1651
▁cushion	-1652
▁sweater	-1653
▁calendar	-1654
▁character	-1655
cc	-1656
no	-1657
act	-1658
ero	-1659
ord	-1660
▁ge	-1661
anut	-1662
line	-1663
soft	-1664
▁eng	-1665
ument	-1666
▁baby	-1667
▁perf	-1668
▁tray	-1669
▁blend	-1670
▁taken	-1671
▁garden	-1672
▁peanut	-1673
▁saying	-1674
▁speaker	-1675
▁condition	-1676
▁microsoft	-1677
pt	-1678
ats	-1679
oor	-1680
▁res	-1681
ality	-1682
▁apps	-1683
▁form	-1684
▁nest	-1685
▁saus	-1686
▁branded	-1687
▁curtains	-1688
wn	-1689
▁9	-1690
aut	-1691
ooth	-1692
sues	-1693
terg	-1694
▁goo	-1695
▁ham	-1696
▁oun	-1697
▁san	-1698
▁zip	-1699
asted	-1700
▁also	-1701
▁answ	-1702
▁cake	-1703
▁cars	-1704
▁clou	-1705
▁just	-1706
▁tall	-1707
ipment	-1708
▁beaut	-1709
▁plaid	-1710
▁wrist	-1711
▁google	-1712
▁browser	-1713
▁nothing	-1714
▁crackers	-1715
▁original	-1716
bu	-1717
ny	-1718
py	-1719
ape	-1720
tty	-1721
▁vo	-1722
▁cyl	-1723
▁imp	-1724
ative	-1725
▁band	-1726
▁herb	-1727
▁ital	-1728
▁mail	-1729
▁mont	-1730
▁user	-1731
▁ceram	-1732
▁cords	-1733
▁price	-1734
▁subst	-1735
▁animal	-1736
▁cylind	-1737
▁recipe	-1738
▁powered	-1739
▁sideways	-1740
▁surround	-1741
▁equipment	-1742
▁fireplace	-1743
▁electrical	-1744
gn	-1745
ern	-1746
ola	-1747
pes	-1748
str	-1749
unt	-1750
val	-1751
ener	-1752
etch	-1753
▁egg	-1754
▁fig	-1755
▁disk	-1756
▁dogs	-1757
▁pure	-1758
▁depic	-1759
▁organ	-1760
▁mostly	-1761
▁powder	-1762
▁spices	-1763
▁bedroom	-1764
▁ceramic	-1765
▁quality	-1766
▁reflect	-1767
▁special	-1768
▁application	-1769
br	-1770
vel	-1771
▁em	-1772
▁fl	-1773
▁hp	-1774
chet	-1775
▁fat	-1776
▁flu	-1777
▁pud	-1778
▁wal	-1779
akers	-1780
ments	-1781
▁five	-1782
▁only	-1783
▁oper	-1784
▁pork	-1785
▁blinds	-1786
▁cannot	-1787
▁titled	-1788
▁italian	-1789
▁pudding	-1790
▁problems	-1791
00	-1792
ini	-1793
▁bit	-1794
▁ear	-1795
▁eye	-1796
cohol	-1797
▁bird	-1798
▁font	-1799
▁jack	-1800
▁rain	-1801
▁vase	-1802
phones	-1803
▁bever	-1804
▁sanit	-1805
▁batter	-1806
▁collar	-1807
▁holder	-1808
▁nestle	-1809
▁things	-1810
▁alcohol	-1811
tte	-1812
wood	-1813
▁add	-1814
▁ele	-1815
▁pod	-1816
allic	-1817
bucks	-1818
▁lots	-1819
▁poin	-1820
▁pres	-1821
▁slip	-1822
▁vert	-1823
▁chunk	-1824
▁login	-1825
▁scent	-1826
▁nature	-1827
▁school	-1828
▁turkey	-1829
▁content	-1830
▁glasses	-1831
▁dressing	-1832
▁metallic	-1833
amo	-1834
rop	-1835
▁if	-1836
▁ash	-1837
▁aut	-1838
▁bul	-1839
▁det	-1840
▁map	-1841
▁ter	-1842
▁usb	-1843
inger	-1844
undry	-1845
▁appl	-1846
▁bare	-1847
▁mush	-1848
▁shel	-1849
▁thin	-1850
▁chili	-1851
▁cookie	-1852
▁dining	-1853
▁instal	-1854
▁checker	-1855
▁laundry	-1856
▁tablets	-1857
▁baseball	-1858
▁carpeted	-1859
▁mushroom	-1860
zz	-1861
lad	-1862
psi	-1863
ume	-1864
cent	-1865
gniz	-1866
▁glo	-1867
▁tre	-1868
▁bars	-1869
▁bear	-1870
▁leaf	-1871
▁lock	-1872
▁mini	-1873
▁rela	-1874
▁span	-1875
▁swag	-1876
▁ounce	-1877
▁pepsi	-1878
▁sport	-1879
iration	-1880
▁comple	-1881
▁poster	-1882
▁slight	-1883
▁applian	-1884
▁healthy	-1885
▁beverage	-1886
▁sanitizer	-1887
vi	-1888
ios	-1889
rig	-1890
tor	-1891
aper	-1892
door	-1893
lish	-1894
ring	-1895
work	-1896
▁doc	-1897
▁joe	-1898
lustr	-1899
▁city	-1900
▁stor	-1901
▁worn	-1902
etchup	-1903
▁natur	-1904
▁spoon	-1905
▁walls	-1906
▁carton	-1907
▁issues	-1908
▁states	-1909
▁switch	-1910
▁illustr	-1911
▁ketchup	-1912
▁outdoor	-1913
▁spanish	-1914
▁american	-1915
▁backside	-1916
▁internet	-1917
▁advertise	-1918
arm	-1919
▁oz	-1920
▁dra	-1921
▁mob	-1922
▁rub	-1923
▁six	-1924
iness	-1925
ister	-1926
uring	-1927
▁cred	-1928
▁sams	-1929
▁coming	-1930
▁sheets	-1931
▁visual	-1932
▁closeup	-1933
▁samsung	-1934
▁walking	-1935
▁covering	-1936
▁substance	-1937
▁containers	-1938
▁advertisement	-1939
ila	-1940
ins	-1941
ager	-1942
ergy	-1943
ines	-1944
▁aid	-1945
▁ben	-1946
▁ger	-1947
▁ink	-1948
▁non	-1949
▁oil	-1950
▁pul	-1951
▁scr	-1952
▁diag	-1953
▁more	-1954
▁palm	-1955
▁pick	-1956
▁stop	-1957
▁trim	-1958
▁will	-1959
▁count	-1960
▁recor	-1961
▁sized	-1962
▁socks	-1963
▁space	-1964
▁breast	-1965
▁mobile	-1966
▁outlet	-1967
▁unable	-1968
▁english	-1969
▁lasagna	-1970
▁serving	-1971
▁microwav	-1972
▁textured	-1973
fe	-1974
po	-1975
▁ut	-1976
▁wa	-1977
ivid	-1978
▁any	-1979
▁fun	-1980
aroni	-1981
▁bead	-1982
▁lean	-1983
▁pile	-1984
▁supp	-1985
▁cross	-1986
▁older	-1987
▁onion	-1988
▁women	-1989
▁credit	-1990
▁crunch	-1991
▁noodle	-1992
▁parked	-1993
▁sleeve	-1994
▁beautif	-1995
▁drawing	-1996
▁individ	-1997
▁roasted	-1998
▁service	-1999
▁stating	-2000
ification	-2001
▁cleaning	-2002
▁macaroni	-2003
lor	-2004
oth	-2005
▁25	-2006
erry	-2007
lets	-2008
▁boy	-2009
▁den	-2010
▁gel	-2011
▁mod	-2012
ility	-2013
▁girl	-2014
▁tort	-2015
▁capsu	-2016
▁maybe	-2017
▁night	-2018
▁title	-2019
▁almost	-2020
▁ginger	-2021
▁plants	-2022
▁shadow	-2023
▁granola	-2024
▁natural	-2025
▁perfume	-2026
▁document	-2027
▁recogniz	-2028
▁beautiful	-2029
▁decorative	-2030
▁headphones	-2031
▁strawberry	-2032
▁microwavable	-2033
bra	-2034
cer	-2035
ges	-2036
ild	-2037
pped	-2038
raft	-2039
▁hat	-2040
▁led	-2041
▁pet	-2042
▁ret	-2043
▁dots	-2044
▁lime	-2045
▁onto	-2046
gether	-2047
▁betty	-2048
▁cards	-2049
▁giant	-2050
▁polka	-2051
▁scene	-2052
tergent	-2053
▁creamy	-2054
▁classic	-2055
▁designs	-2056
▁painted	-2057
▁squares	-2058
▁together	-2059
▁wireless	-2060
▁appliance	-2061
▁checkered	-2062
▁detergent	-2063
▁collection	-2064
▁controller	-2065
▁supplements	-2066
cur	-2067
ety	-2068
isc	-2069
mer	-2070
uss	-2071
ails	-2072
cake	-2073
ging	-2074
unes	-2075
▁gum	-2076
▁kid	-2077
▁mir	-2078
▁veh	-2079
▁atop	-2080
▁care	-2081
▁love	-2082
▁polo	-2083
▁ravi	-2084
▁sett	-2085
▁stat	-2086
▁tape	-2087
▁break	-2088
▁going	-2089
▁horiz	-2090
▁model	-2091
▁passw	-2092
▁point	-2093
▁salad	-2094
▁serve	-2095
▁using	-2096
▁assort	-2097
▁select	-2098
▁severe	-2099
▁united	-2100
▁crocker	-2101
▁loading	-2102
▁organic	-2103
▁parking	-2104
▁present	-2105
▁products	-2106
▁sidewalk	-2107
▁sleeping	-2108
▁operating	-2109
▁recognize	-2110
afe	-2111
ello	-2112
enty	-2113
head	-2114
ness	-2115
tted	-2116
▁emb	-2117
▁kee	-2118
▁rel	-2119
▁rib	-2120
▁she	-2121
▁upd	-2122
crete	-2123
rical	-2124
riger	-2125
▁cold	-2126
▁hall	-2127
▁miss	-2128
▁plug	-2129
▁smok	-2130
▁snow	-2131
utting	-2132
▁cheer	-2133
▁uncle	-2134
▁circle	-2135
▁itunes	-2136
▁serial	-2137
▁spread	-2138
▁weight	-2139
▁answers	-2140
▁article	-2141
▁graphic	-2142
▁manager	-2143
▁ravioli	-2144
▁toaster	-2145
▁concrete	-2146
▁password	-2147
▁recovery	-2148
▁refriger	-2149
▁settings	-2150
▁vertical	-2151
▁wrinkled	-2152
▁cluttered	-2153
ho	-2154
cil	-2155
icy	-2156
met	-2157
uth	-2158
▁ha	-2159
bled	-2160
body	-2161
bury	-2162
fast	-2163
ides	-2164
▁ore	-2165
▁ram	-2166
▁sci	-2167
▁sim	-2168
▁sol	-2169
▁way	-2170
▁lite	-2171
▁must	-2172
▁snap	-2173
▁they	-2174
curity	-2175
▁foods	-2176
▁truck	-2177
▁access	-2178
▁closet	-2179
▁jacket	-2180
▁sachet	-2181
▁business	-2182
▁capsules	-2183
▁driveway	-2184
▁horizont	-2185
▁packages	-2186
▁security	-2187
▁slightly	-2188
▁connected	-2189
▁expiration	-2190
▁cylindrical	-2191
cd	-2192
ns	-2193
vy	-2194
ata	-2195
ier	-2196
nam	-2197
anch	-2198
ants	-2199
aste	-2200
land	-2201
larm	-2202
okia	-2203
udio	-2204
▁ale	-2205
▁ant	-2206
▁nes	-2207
▁row	-2208
▁tip	-2209
▁tri	-2210
▁aust	-2211
▁calc	-2212
▁coin	-2213
▁heat	-2214
▁ligh	-2215
▁navy	-2216
▁pamp	-2217
▁pine	-2218
▁pull	-2219
▁slic	-2220
▁tool	-2221
▁yard	-2222
▁alarm	-2223
▁arrow	-2224
▁audio	-2225
▁basil	-2226
▁canad	-2227
▁extra	-2228
▁field	-2229
▁maker	-2230
▁nokia	-2231
▁purse	-2232
▁super	-2233
▁thumb	-2234
▁wheel	-2235
▁booksh	-2236
▁mirror	-2237
▁pencil	-2238
▁stands	-2239
▁transp	-2240
▁austral	-2241
▁shelves	-2242
▁personal	-2243
▁blackberry	-2244
▁describing	-2245
▁reflection	-2246
▁conditioner	-2247
aps	-2248
arn	-2249
cus	-2250
ime	-2251
put	-2252
uis	-2253
▁ab	-2254
▁ap	-2255
irst	-2256
ised	-2257
iver	-2258
sert	-2259
vers	-2260
▁act	-2261
▁bac	-2262
▁dro	-2263
▁lic	-2264
▁tee	-2265
arent	-2266
itech	-2267
▁keep	-2268
▁land	-2269
▁requ	-2270
▁cider	-2271
▁kraft	-2272
▁press	-2273
▁shape	-2274
identif	-2275
▁dishes	-2276
▁marker	-2277
▁medium	-2278
▁snacks	-2279
▁sports	-2280
▁trader	-2281
▁valley	-2282
▁calcula	-2283
▁persons	-2284
▁cheerios	-2285
▁dialogue	-2286
▁hardwood	-2287
▁logitech	-2288
▁somebody	-2289
▁speakers	-2290
▁buildings	-2291
▁telephone	-2292
▁installing	-2293
ah	-2294
ik	-2295
des	-2296
ert	-2297
inz	-2298
tes	-2299
uro	-2300
▁18	-2301
▁av	-2302
amil	-2303
ense	-2304
▁don	-2305
▁fur	-2306
▁pin	-2307
▁tor	-2308
ashed	-2309
ckled	-2310
ulder	-2311
vices	-2312
▁bank	-2313
▁comm	-2314
▁disp	-2315
▁life	-2316
▁push	-2317
▁sock	-2318
▁bacon	-2319
▁block	-2320
▁crump	-2321
▁denim	-2322
▁focus	-2323
▁goods	-2324
▁group	-2325
▁heinz	-2326
▁indic	-2327
▁pages	-2328
▁tiles	-2329
▁pulled	-2330
▁smooth	-2331
▁battery	-2332
▁feature	-2333
▁stuffed	-2334
▁vehicle	-2335
▁notebook	-2336
▁speckled	-2337
▁breakfast	-2338
▁decorated	-2339
▁individual	-2340
▁ingredient	-2341
▁surrounded	-2342
ared	-2343
ille	-2344
pack	-2345
page	-2346
ults	-2347
▁bor	-2348
▁cel	-2349
▁son	-2350
▁upc	-2351
▁win	-2352
ccoli	-2353
sheet	-2354
▁chop	-2355
▁fill	-2356
▁peas	-2357
▁toys	-2358
▁zero	-2359
▁dryer	-2360
▁first	-2361
▁mixed	-2362
▁newsp	-2363
▁seems	-2364
▁steel	-2365
▁woven	-2366
▁clouds	-2367
▁figure	-2368
▁german	-2369
▁having	-2370
▁series	-2371
▁pumpkin	-2372
▁scratch	-2373
▁broccoli	-2374
▁wrapping	-2375
▁horizontal	-2376
▁electronics	-2377
▁transparent	-2378
sa	-2379
ana	-2380
day	-2381
mes	-2382
uzz	-2383
▁af	-2384
▁ip	-2385
aded	-2386
gers	-2387
ongs	-2388
rite	-2389
uses	-2390
vest	-2391
well	-2392
wich	-2393
▁ang	-2394
▁ins	-2395
▁kit	-2396
▁kro	-2397
▁nap	-2398
▁rip	-2399
▁tro	-2400
nding	-2401
▁bags	-2402
▁cool	-2403
▁lace	-2404
forter	-2405
lation	-2406
▁dried	-2407
▁pamph	-2408
▁patch	-2409
▁sound	-2410
▁stone	-2411
▁chunky	-2412
▁kroger	-2413
▁mashed	-2414
▁packed	-2415
▁taking	-2416
▁compact	-2417
▁hallway	-2418
▁harvest	-2419
▁scented	-2420
▁stacked	-2421
▁complete	-2422
▁crumpled	-2423
▁bookshelf	-2424
▁comforter	-2425
▁characters	-2426
▁illustration	-2427
box	-2428
ino	-2429
nut	-2430
▁11	-2431
▁15	-2432
▁pa	-2433
▁zo	-2434
eddy	-2435
foam	-2436
iano	-2437
logy	-2438
▁cla	-2439
▁dec	-2440
▁fol	-2441
▁haw	-2442
▁jew	-2443
▁rot	-2444
▁tar	-2445
▁tes	-2446
apter	-2447
ising	-2448
▁bush	-2449
▁clip	-2450
▁cons	-2451
▁flag	-2452
▁flip	-2453
▁foil	-2454
▁lawn	-2455
▁nice	-2456
▁nuts	-2457
▁rack	-2458
▁shop	-2459
▁wrap	-2460
▁yarn	-2461
burger	-2462
lender	-2463
rofoam	-2464
▁could	-2465
▁diamo	-2466
▁files	-2467
▁harry	-2468
▁marie	-2469
▁monte	-2470
▁mouth	-2471
▁piano	-2472
▁ramen	-2473
▁teddy	-2474
▁toile	-2475
▁typed	-2476
itional	-2477
▁draped	-2478
▁energy	-2479
▁keypad	-2480
▁listed	-2481
▁neckla	-2482
▁stitch	-2483
▁towels	-2484
▁butterf	-2485
▁country	-2486
▁license	-2487
▁peaches	-2488
▁pockets	-2489
▁propped	-2490
▁results	-2491
▁assorted	-2492
▁pamphlet	-2493
▁textbook	-2494
▁touching	-2495
▁newspaper	-2496
▁styrofoam	-2497
acu	-2498
aki	-2499
cel	-2500
ilt	-2501
que	-2502
▁ir	-2503
▁wi	-2504
ican	-2505
▁nas	-2506
acuum	-2507
iable	-2508
▁bulb	-2509
▁cane	-2510
▁conf	-2511
▁data	-2512
▁ipod	-2513
▁knit	-2514
▁pale	-2515
▁prot	-2516
▁tass	-2517
▁tell	-2518
▁wild	-2519
▁zoom	-2520
ishing	-2521
▁flour	-2522
▁gravy	-2523
▁inter	-2524
▁lined	-2525
▁linen	-2526
▁marsh	-2527
▁needs	-2528
▁terms	-2529
station	-2530
▁border	-2531
▁hanger	-2532
▁napkin	-2533
▁triang	-2534
▁vacuum	-2535
▁wallet	-2536
▁address	-2537
▁charger	-2538
▁marbled	-2539
▁missing	-2540
▁sausage	-2541
▁symbols	-2542
▁webpage	-2543
scription	-2544
▁cabinets	-2545
▁controls	-2546
▁sausages	-2547
▁shoulder	-2548
▁snapshot	-2549
▁callender	-2550
▁stainless	-2551
▁worksheet	-2552
▁calculator	-2553
▁installation	-2554
▁refrigerator	-2555
ets	-2556
ior	-2557
lit	-2558
med	-2559
ized	-2560
loaf	-2561
ract	-2562
ward	-2563
▁adv	-2564
▁bug	-2565
▁dic	-2566
▁fix	-2567
▁loc	-2568
▁max	-2569
▁mex	-2570
▁put	-2571
▁tie	-2572
apple	-2573
ttery	-2574
▁bake	-2575
▁bean	-2576
▁belt	-2577
▁both	-2578
▁coat	-2579
▁crow	-2580
▁else	-2581
▁fork	-2582
▁need	-2583
▁volu	-2584
▁brace	-2585
▁cough	-2586
▁edges	-2587
▁fiber	-2588
▁jewel	-2589
▁meter	-2590
▁pouch	-2591
▁sleep	-2592
▁train	-2593
▁trash	-2594
▁baking	-2595
▁houses	-2596
▁potter	-2597
▁rubber	-2598
▁update	-2599
▁braille	-2600
▁command	-2601
▁diagram	-2602
▁leaning	-2603
▁listing	-2604
▁lottery	-2605
▁musical	-2606
▁storage	-2607
▁without	-2608
▁labelled	-2609
▁meatloaf	-2610
▁pineapple	-2611
▁instruction	-2612
go	-2613
ze	-2614
dar	-2615
ico	-2616
irk	-2617
lbo	-2618
rew	-2619
rup	-2620
▁16	-2621
▁my	-2622
▁ze	-2623
ably	-2624
akes	-2625
amed	-2626
case	-2627
held	-2628
idge	-2629
lies	-2630
ming	-2631
omet	-2632
ryst	-2633
▁jam	-2634
▁mot	-2635
▁pos	-2636
▁ray	-2637
▁sat	-2638
eddar	-2639
ensed	-2640
ither	-2641
lboro	-2642
wards	-2643
▁best	-2644
▁cele	-2645
▁cong	-2646
▁dist	-2647
▁euro	-2648
▁grow	-2649
▁help	-2650
▁hook	-2651
▁teal	-2652
▁tech	-2653
▁want	-2654
roider	-2655
▁birth	-2656
▁carro	-2657
▁crust	-2658
▁cryst	-2659
▁pound	-2660
▁ranch	-2661
▁speed	-2662
▁story	-2663
▁cherry	-2664
▁cotton	-2665
▁either	-2666
▁entire	-2667
▁maroon	-2668
▁option	-2669
▁toilet	-2670
▁volume	-2671
▁walkie	-2672
▁capture	-2673
▁cheddar	-2674
▁related	-2675
▁science	-2676
▁talking	-2677
▁backpack	-2678
▁charging	-2679
▁contents	-2680
▁handheld	-2681
▁homework	-2682
▁marlboro	-2683
▁necklace	-2684
▁patterns	-2685
▁shutting	-2686
▁cellphone	-2687
▁condensed	-2688
▁embroider	-2689
▁hamburger	-2690
▁rectangle	-2691
▁swagbucks	-2692
▁reflecting	-2693
▁microwaveable	-2694
by	-2695
nel	-2696
▁es	-2697
▁ml	-2698
▁ol	-2699
atic	-2700
hold	-2701
ilar	-2702
uble	-2703
▁amo	-2704
▁haz	-2705
▁pig	-2706
▁por	-2707
▁slo	-2708
glass	-2709
ually	-2710
uffer	-2711
▁chef	-2712
▁cuss	-2713
▁dove	-2714
▁drug	-2715
▁eyes	-2716
▁fuzz	-2717
▁info	-2718
▁jean	-2719
▁king	-2720
▁mode	-2721
▁ribb	-2722
▁sour	-2723
▁such	-2724
▁take	-2725
▁vari	-2726
▁year	-2727
arding	-2728
letely	-2729
ometer	-2730
struct	-2731
▁autom	-2732
▁boxed	-2733
▁doors	-2734
▁fried	-2735
▁media	-2736
▁messy	-2737
▁notes	-2738
▁relie	-2739
▁secre	-2740
▁seeds	-2741
▁setup	-2742
▁tesco	-2743
ational	-2744
▁downlo	-2745
▁cussler	-2746
▁dietary	-2747
▁grained	-2748
▁shining	-2749
▁similar	-2750
▁towards	-2751
▁utility	-2752
▁birthday	-2753
▁canister	-2754
▁possible	-2755
▁regarding	-2756
▁completely	-2757
▁playstation	-2758
cr	-2759
oc	-2760
ara	-2761
bor	-2762
bum	-2763
eth	-2764
mal	-2765
ona	-2766
ors	-2767
pie	-2768
▁24	-2769
▁50	-2770
ases	-2771
cial	-2772
flow	-2773
pers	-2774
tray	-2775
ully	-2776
▁200	-2777
▁bad	-2778
▁dan	-2779
▁far	-2780
▁ult	-2781
▁viz	-2782
elnut	-2783
ering	-2784
mesan	-2785
right	-2786
▁arab	-2787
▁copy	-2788
▁does	-2789
▁doll	-2790
▁kern	-2791
▁magn	-2792
▁oval	-2793
▁prem	-2794
▁ship	-2795
▁tank	-2796
▁trad	-2797
iscuit	-2798
▁agree	-2799
▁album	-2800
▁chain	-2801
▁fence	-2802
▁gloss	-2803
▁grand	-2804
▁minut	-2805
▁spark	-2806
▁state	-2807
▁sweat	-2808
▁syrup	-2809
▁timer	-2810
▁torso	-2811
▁types	-2812
▁wheat	-2813
glasses	-2814
▁burner	-2815
▁cloudy	-2816
▁corded	-2817
▁labels	-2818
▁prepar	-2819
▁sandal	-2820
▁sliced	-2821
▁sprite	-2822
▁talkie	-2823
▁twenty	-2824
▁ashtray	-2825
▁blurred	-2826
▁devices	-2827
▁lighter	-2828
▁mustard	-2829
▁peppers	-2830
▁restart	-2831
▁sleeved	-2832
▁smaller	-2833
▁bracelet	-2834
▁drinking	-2835
▁hazelnut	-2836
▁parmesan	-2837
▁portable	-2838
▁stouffer	-2839
▁vitamins	-2840
▁wrinkles	-2841
▁australia	-2842
▁described	-2843
▁starbucks	-2844
▁microphone	-2845
▁traditional	-2846
au	-2847
of	-2848
ty	-2849
bow	-2850
com	-2851
ffe	-2852
iba	-2853
imo	-2854
ney	-2855
ube	-2856
▁75	-2857
▁mg	-2858
cean	-2859
haps	-2860
reme	-2861
ript	-2862
▁aqu	-2863
▁arr	-2864
▁gam	-2865
▁lay	-2866
▁nor	-2867
▁oat	-2868
▁paw	-2869
▁rob	-2870
aking	-2871
inish	-2872
issue	-2873
izing	-2874
lable	-2875
shiba	-2876
▁almo	-2877
▁dust	-2878
▁fall	-2879
▁live	-2880
▁rose	-2881
▁scan	-2882
▁tabs	-2883
▁tart	-2884
spread	-2885
▁beads	-2886
▁chest	-2887
▁famil	-2888
▁fuzzy	-2889
▁input	-2890
▁instr	-2891
▁ocean	-2892
▁patio	-2893
▁shred	-2894
▁signs	-2895
▁songs	-2896
▁thick	-2897
▁think	-2898
▁world	-2899
▁banner	-2900
▁cables	-2901
▁cooked	-2902
▁glossy	-2903
▁mathem	-2904
▁salmon	-2905
▁stripe	-2906
▁tissue	-2907
▁travel	-2908
▁washer	-2909
▁brownie	-2910
▁creamer	-2911
▁crossed	-2912
▁heating	-2913
▁mexican	-2914
▁perhaps	-2915
▁protect	-2916
▁tassimo	-2917
▁texture	-2918
▁toshiba	-2919
▁flooring	-2920
▁pointing	-2921
▁tortilla	-2922
▁bedspread	-2923
▁highlight	-2924
▁household	-2925
▁prescription	-2926
con	-2927
hip	-2928
hor	-2929
its	-2930
par	-2931
uts	-2932
was	-2933
wiz	-2934
ahoo	-2935
corn	-2936
urch	-2937
view	-2938
vign	-2939
writ	-2940
▁dee	-2941
▁dot	-2942
▁gla	-2943
▁mem	-2944
▁str	-2945
▁tun	-2946
anges	-2947
arter	-2948
inder	-2949
rance	-2950
sette	-2951
▁away	-2952
▁bene	-2953
▁cree	-2954
▁cris	-2955
▁curs	-2956
▁dash	-2957
▁drum	-2958
▁grip	-2959
▁hung	-2960
▁male	-2961
▁meas	-2962
▁pods	-2963
▁prob	-2964
▁rand	-2965
▁shar	-2966
▁shut	-2967
▁vegg	-2968
▁when	-2969
vignon	-2970
▁brush	-2971
▁click	-2972
▁delic	-2973
▁diced	-2974
▁hawai	-2975
▁moist	-2976
▁named	-2977
▁rolls	-2978
▁screw	-2979
▁yahoo	-2980
▁ziplo	-2981
▁church	-2982
▁coupon	-2983
▁grocer	-2984
▁mantle	-2985
▁polish	-2986
▁string	-2987
▁tables	-2988
▁adapter	-2989
▁america	-2990
▁garment	-2991
▁popcorn	-2992
▁regular	-2993
▁upright	-2994
▁variety	-2995
▁cassette	-2996
▁mathemat	-2997
▁meatball	-2998
▁standard	-2999
▁agreement	-3000
▁cigarette	-3001
▁depicting	-3002
▁sauvignon	-3003
▁decoration	-3004
▁photographer	-3005
eo	-3006
▁q	-3007
▁u	-3008
abb	-3009
elc	-3010
ery	-3011
gne	-3012
ife	-3013
ken	-3014
mel	-3015
ucc	-3016
uce	-3017
▁19	-3018
▁70	-3019
▁kh	-3020
▁ta	-3021
agra	-3022
airy	-3023
fore	-3024
meal	-3025
mple	-3026
nder	-3027
othy	-3028
pper	-3029
quet	-3030
▁alf	-3031
▁bal	-3032
▁esp	-3033
▁had	-3034
▁mas	-3035
▁our	-3036
▁say	-3037
▁sne	-3038
aired	-3039
ental	-3040
eting	-3041
iller	-3042
▁asus	-3043
▁bold	-3044
▁brew	-3045
▁bund	-3046
▁chee	-3047
▁club	-3048
▁deli	-3049
▁iced	-3050
▁obsc	-3051
▁oreo	-3052
▁recy	-3053
▁sony	-3054
▁than	-3055
▁belly	-3056
▁bench	-3057
▁bolog	-3058
▁broad	-3059
▁creme	-3060
▁crumb	-3061
▁glare	-3062
▁heavy	-3063
▁knobs	-3064
▁liter	-3065
▁might	-3066
▁parts	-3067
▁river	-3068
▁skype	-3069
▁spicy	-3070
▁spots	-3071
▁steam	-3072
▁thing	-3073
▁track	-3074
artment	-3075
berries	-3076
▁amount	-3077
▁blouse	-3078
▁drawer	-3079
▁family	-3080
▁fridge	-3081
▁geomet	-3082
▁grassy	-3083
▁shades	-3084
▁shaker	-3085
▁vizwiz	-3086
▁zoomed	-3087
▁booklet	-3088
▁coaster	-3089
▁cologne	-3090
▁details	-3091
▁fillets	-3092
▁formula	-3093
▁lasagne	-3094
▁notepad	-3095
▁oatmeal	-3096
▁perform	-3097
▁quarter	-3098
▁timothy	-3099
▁canadian	-3100
▁cupboard	-3101
▁designed	-3102
▁labeling	-3103
▁probably	-3104
▁shredded	-3105
▁automatic	-3106
▁blueberry	-3107
▁equations	-3108
▁installed	-3109
▁meatballs	-3110
▁signature	-3111
▁cheesecake	-3112
▁indicating	-3113
▁notification	-3114
ma	-3115
ux	-3116
bac	-3117
erc	-3118
ffy	-3119
ole	-3120
rat	-3121
rin	-3122
vet	-3123
yme	-3124
▁dy	-3125
▁et	-3126
bble	-3127
cafe	-3128
ipes	-3129
sole	-3130
used	-3131
▁acc	-3132
▁bio	-3133
▁cin	-3134
▁dew	-3135
▁dip	-3136
▁hap	-3137
▁lux	-3138
▁mes	-3139
▁oak	-3140
▁vin	-3141
▁won	-3142
bacco	-3143
iding	-3144
illed	-3145
imate	-3146
ional	-3147
lular	-3148
naise	-3149
namon	-3150
resso	-3151
stick	-3152
ttage	-3153
▁2011	-3154
▁acid	-3155
▁brit	-3156
▁chin	-3157
▁chro	-3158
▁deep	-3159
▁deta	-3160
▁farm	-3161
▁knee	-3162
▁lens	-3163
▁matt	-3164
▁prim	-3165
▁prov	-3166
▁puff	-3167
▁rock	-3168
▁roof	-3169
▁seal	-3170
▁solu	-3171
▁spir	-3172
▁stem	-3173
▁suit	-3174
▁team	-3175
ctions	-3176
ellini	-3177
flower	-3178
ingles	-3179
▁barbe	-3180
▁bites	-3181
▁bucks	-3182
▁camel	-3183
▁doing	-3184
▁dusty	-3185
▁exerc	-3186
▁figur	-3187
▁knife	-3188
▁laces	-3189
▁marin	-3190
▁month	-3191
▁punch	-3192
▁salty	-3193
▁thyme	-3194
▁treat	-3195
▁compon	-3196
▁finish	-3197
▁forest	-3198
▁giving	-3199
▁insert	-3200
▁kernel	-3201
▁liquor	-3202
▁online	-3203
▁random	-3204
▁router	-3205
▁script	-3206
▁shirts	-3207
▁squash	-3208
▁viewed	-3209
▁ziploc	-3210
riptions	-3211
▁candles	-3212
▁carrots	-3213
▁contact	-3214
▁cottage	-3215
▁dancing	-3216
▁drawers	-3217
▁grocery	-3218
▁hangers	-3219
▁moistur	-3220
▁nescafe	-3221
▁sandals	-3222
▁stained	-3223
▁tobacco	-3224
▁wording	-3225
▁brightly	-3226
▁captured	-3227
▁cellular	-3228
▁cinnamon	-3229
▁depicted	-3230
▁diamonds	-3231
▁football	-3232
▁handwrit	-3233
▁hawaiian	-3234
▁messages	-3235
▁overhead	-3236
▁position	-3237
▁prepared	-3238
▁pringles	-3239
▁sandwich	-3240
▁shipping	-3241
▁specific	-3242
▁starting	-3243
▁tabletop	-3244
▁butterfly	-3245
▁envelopes	-3246
▁pepperoni	-3247
▁processed	-3248
▁photographed	-3249
fr	-3250
iy	-3251
ks	-3252
tz	-3253
acy	-3254
cue	-3255
erk	-3256
ils	-3257
mio	-3258
rie	-3259
▁hy	-3260
▁ow	-3261
▁ps	-3262
▁si	-3263
▁su	-3264
anta	-3265
cast	-3266
itos	-3267
lege	-3268
mill	-3269
odor	-3270
onal	-3271
redo	-3272
ucas	-3273
▁ast	-3274
▁cos	-3275
▁fly	-3276
▁lcd	-3277
▁lik	-3278
▁now	-3279
▁pay	-3280
▁rom	-3281
▁saf	-3282
ernet	-3283
icles	-3284
icolo	-3285
tereo	-3286
▁2012	-3287
▁2013	-3288
▁cafe	-3289
▁call	-3290
▁chan	-3291
▁cock	-3292
▁colu	-3293
▁ench	-3294
▁gram	-3295
▁hour	-3296
▁insp	-3297
▁kept	-3298
▁kids	-3299
▁kool	-3300
▁lake	-3301
▁link	-3302
▁main	-3303
▁plus	-3304
▁remo	-3305
▁same	-3306
▁then	-3307
▁tiny	-3308
ellogg	-3309
ential	-3310
ifying	-3311
ighbor	-3312
mpting	-3313
ratula	-3314
urance	-3315
▁chess	-3316
▁chile	-3317
▁china	-3318
▁colla	-3319
▁creek	-3320
▁drops	-3321
▁games	-3322
▁hairy	-3323
▁hotel	-3324
▁lamin	-3325
▁maple	-3326
▁olive	-3327
▁paint	-3328
▁pretz	-3329
▁teeth	-3330
▁tooth	-3331
▁uphol	-3332
▁wings	-3333
▁young	-3334
ailable	-3335
iscuits	-3336
ructure	-3337
ucasian	-3338
▁banana	-3339
▁dolmio	-3340
▁filter	-3341
▁frames	-3342
▁herbal	-3343
▁notice	-3344
▁potted	-3345
▁raised	-3346
▁retrie	-3347
▁smoked	-3348
▁stains	-3349
▁stereo	-3350
icolored	-3351
▁alfredo	-3352
▁circles	-3353
▁college	-3354
▁console	-3355
▁dishwas	-3356
▁dollars	-3357
▁express	-3358
▁identif	-3359
▁jewelry	-3360
▁kellogg	-3361
▁minutes	-3362
▁opening	-3363
▁percent	-3364
▁premium	-3365
▁require	-3366
▁stretch	-3367
▁unclear	-3368
▁barbecue	-3369
▁cabernet	-3370
▁coloring	-3371
▁cylinder	-3372
▁distance	-3373
▁function	-3374
▁includes	-3375
▁mattress	-3376
▁neighbor	-3377
▁stuffing	-3378
▁triangle	-3379
▁batteries	-3380
▁caucasian	-3381
▁honeywell	-3382
▁insurance	-3383
▁structure	-3384
▁sweetener	-3385
▁upholster	-3386
▁congratula	-3387
▁embroidered	-3388
▁preparation	-3389
▁mathematical	-3390
▁multicolored	-3391
my	-3392
car	-3393
jon	-3394
len	-3395
lin	-3396
ose	-3397
pro	-3398
quo	-3399
ses	-3400
ufa	-3401
▁30	-3402
▁od	-3403
ctor	-3404
drop	-3405
lymp	-3406
osed	-3407
otic	-3408
port	-3409
rimp	-3410
roll	-3411
uish	-3412
unts	-3413
yard	-3414
▁ath	-3415
▁dun	-3416
▁ess	-3417
▁mcd	-3418
▁ses	-3419
▁sum	-3420
▁tot	-3421
▁vcr	-3422
▁vic	-3423
chure	-3424
house	-3425
piece	-3426
toria	-3427
ufact	-3428
valia	-3429
▁acco	-3430
▁cash	-3431
▁chew	-3432
▁cuis	-3433
▁eggs	-3434
▁exte	-3435
▁fake	-3436
▁fast	-3437
▁iron	-3438
▁jell	-3439
▁mesh	-3440
▁pant	-3441
▁schw	-3442
▁welc	-3443
agraph	-3444
closed	-3445
erries	-3446
quoise	-3447
▁angle	-3448
▁broth	-3449
▁clive	-3450
▁dijon	-3451
▁email	-3452
▁frost	-3453
▁guide	-3454
▁herbs	-3455
▁khaki	-3456
▁olymp	-3457
▁pharm	-3458
▁quote	-3459
▁sides	-3460
▁solid	-3461
▁would	-3462
▁cancel	-3463
▁chrome	-3464
▁deodor	-3465
▁eating	-3466
▁heater	-3467
▁helper	-3468
▁import	-3469
▁indian	-3470
▁likely	-3471
▁safety	-3472
▁sesame	-3473
▁should	-3474
▁socket	-3475
▁statue	-3476
▁strips	-3477
▁treats	-3478
tinguish	-3479
▁chinese	-3480
▁filling	-3481
▁gevalia	-3482
▁grilled	-3483
▁mcdonal	-3484
▁medical	-3485
▁welcome	-3486
▁backyard	-3487
▁brochure	-3488
▁cordless	-3489
▁enclosed	-3490
▁manufact	-3491
▁marshall	-3492
▁solution	-3493
▁ultimate	-3494
▁victoria	-3495
▁dashboard	-3496
▁freshener	-3497
▁paragraph	-3498
▁stitching	-3499
▁turquoise	-3500
▁unidentif	-3501
▁basketball	-3502
▁instrument	-3503
▁tortellini	-3504
▁advertising	-3505
▁decorations	-3506
▁descriptions	-3507
cl	-3508
jo	-3509
wh	-3510
ama	-3511
amb	-3512
asp	-3513
cam	-3514
gar	-3515
kes	-3516
lla	-3517
nis	-3518
ous	-3519
ppy	-3520
rox	-3521
ues	-3522
ute	-3523
▁14	-3524
▁fm	-3525
▁lg	-3526
agon	-3527
ased	-3528
back	-3529
exas	-3530
fish	-3531
gano	-3532
hood	-3533
ield	-3534
nded	-3535
ston	-3536
vory	-3537
▁199	-3538
▁bun	-3539
▁dom	-3540
▁fed	-3541
▁get	-3542
▁guy	-3543
▁him	-3544
▁int	-3545
▁joh	-3546
▁nar	-3547
▁ris	-3548
▁roy	-3549
▁sla	-3550
▁stu	-3551
▁tap	-3552
ardee	-3553
ately	-3554
enser	-3555
ersey	-3556
front	-3557
green	-3558
thing	-3559
▁bull	-3560
▁cost	-3561
▁fool	-3562
▁gour	-3563
▁icon	-3564
▁inch	-3565
▁kirk	-3566
▁loaf	-3567
▁mich	-3568
▁moon	-3569
▁path	-3570
▁real	-3571
▁sent	-3572
▁shea	-3573
▁stap	-3574
▁stud	-3575
▁tied	-3576
▁tuna	-3577
▁whis	-3578
erence	-3579
ically	-3580
lowing	-3581
screen	-3582
▁activ	-3583
▁after	-3584
▁angel	-3585
▁based	-3586
▁cases	-3587
▁champ	-3588
▁cheez	-3589
▁crown	-3590
▁eleph	-3591
▁every	-3592
▁folds	-3593
▁furry	-3594
▁louis	-3595
▁mango	-3596
▁match	-3597
▁ornam	-3598
▁peace	-3599
▁popup	-3600
▁purch	-3601
▁rocks	-3602
▁salsa	-3603
▁strap	-3604
▁swirl	-3605
▁tarts	-3606
▁texas	-3607
▁therm	-3608
▁thigh	-3609
▁trail	-3610
▁works	-3611
▁arabic	-3612
▁broken	-3613
▁bubble	-3614
▁canada	-3615
▁celest	-3616
▁condim	-3617
▁folder	-3618
▁hormel	-3619
▁jersey	-3620
▁landsc	-3621
▁loaded	-3622
▁makeup	-3623
▁narrow	-3624
▁onions	-3625
▁photos	-3626
▁placem	-3627
▁shrimp	-3628
▁tennis	-3629
▁accents	-3630
▁artific	-3631
▁crochet	-3632
▁dessert	-3633
▁extreme	-3634
▁leading	-3635
▁oranges	-3636
▁perfect	-3637
▁rolling	-3638
▁slipper	-3639
▁backdrop	-3640
▁boyardee	-3641
▁cushions	-3642
▁download	-3643
▁espresso	-3644
▁exercise	-3645
▁features	-3646
▁greeting	-3647
▁obstruct	-3648
▁sticking	-3649
▁supplies	-3650
▁deodorant	-3651
▁dispenser	-3652
▁functions	-3653
▁materials	-3654
▁selection	-3655
▁dishwasher	-3656
▁surrounding	-3657
▁thermometer	-3658
▁conditioning	-3659
▁neighborhood	-3660
▁unidentifiable	-3661
li	-3662
vo	-3663
ars	-3664
ged	-3665
iod	-3666
mos	-3667
nde	-3668
olf	-3669
ton	-3670
vor	-3671
▁cy	-3672
▁id	-3673
▁va	-3674
aged	-3675
agle	-3676
aily	-3677
amel	-3678
ival	-3679
mark	-3680
sect	-3681
tein	-3682
time	-3683
uced	-3684
ylon	-3685
▁400	-3686
▁aer	-3687
▁bud	-3688
▁cow	-3689
▁cub	-3690
▁dim	-3691
▁dor	-3692
▁dre	-3693
▁fit	-3694
▁inf	-3695
▁net	-3696
▁pea	-3697
▁phr	-3698
▁uni	-3699
▁usa	-3700
aland	-3701
amous	-3702
brary	-3703
cause	-3704
erole	-3705
ivers	-3706
point	-3707
urnal	-3708
utube	-3709
▁abst	-3710
▁arms	-3711
▁bell	-3712
▁burg	-3713
▁calo	-3714
▁cass	-3715
▁comb	-3716
▁cust	-3717
▁find	-3718
▁foam	-3719
▁garb	-3720
▁hood	-3721
▁lion	-3722
▁mart	-3723
▁mois	-3724
▁muff	-3725
▁news	-3726
▁nine	-3727
▁ones	-3728
▁phys	-3729
▁prof	-3730
▁rasp	-3731
▁rese	-3732
▁resp	-3733
▁seco	-3734
▁spot	-3735
▁thom	-3736
▁vers	-3737
▁wick	-3738
▁zone	-3739
asonic	-3740
sticks	-3741
▁astro	-3742
▁balls	-3743
▁blues	-3744
▁boots	-3745
▁daily	-3746
▁dairy	-3747
▁eagle	-3748
▁eaten	-3749
▁eight	-3750
▁expla	-3751
▁novel	-3752
▁obser	-3753
▁order	-3754
▁quilt	-3755
▁rings	-3756
▁scout	-3757
▁scrib	-3758
▁separ	-3759
▁slice	-3760
▁stars	-3761
▁stuck	-3762
▁sunny	-3763
▁times	-3764
▁tread	-3765
▁usage	-3766
ization	-3767
▁athlet	-3768
▁blonde	-3769
▁crisps	-3770
▁doctor	-3771
▁donuts	-3772
▁double	-3773
▁dunkin	-3774
▁during	-3775
▁famous	-3776
▁garage	-3777
▁luxpro	-3778
▁nascar	-3779
▁opener	-3780
▁period	-3781
▁pretty	-3782
▁seated	-3783
▁secret	-3784
▁typing	-3785
▁webcam	-3786
▁allergy	-3787
▁because	-3788
▁beneath	-3789
▁candies	-3790
▁checked	-3791
▁crunchy	-3792
▁journal	-3793
▁library	-3794
▁located	-3795
▁protein	-3796
▁repairs	-3797
▁thermos	-3798
▁youtube	-3799
▁zealand	-3800
▁abstract	-3801
▁biscuits	-3802
▁calories	-3803
▁crystals	-3804
▁elements	-3805
▁equation	-3806
▁geometry	-3807
▁moisture	-3808
▁powdered	-3809
▁slippers	-3810
▁stickers	-3811
▁switches	-3812
▁walgreen	-3813
▁watching	-3814
▁available	-3815
▁casserole	-3816
▁celestial	-3817
▁delicious	-3818
▁measuring	-3819
▁panasonic	-3820
▁pillsbury	-3821
▁recording	-3822
▁treadmill	-3823
▁artificial	-3824
▁paragraphs	-3825
▁reflective	-3826
▁handwritten	-3827
▁international	-3828
75	-3829
vs	-3830
xy	-3831
ya	-3832
bit	-3833
erg	-3834
ird	-3835
loe	-3836
sel	-3837
tto	-3838
▁28	-3839
▁90	-3840
▁bb	-3841
▁hu	-3842
▁mu	-3843
▁ny	-3844
alan	-3845
iana	-3846
ieve	-3847
ilit	-3848
ives	-3849
lait	-3850
lock	-3851
nese	-3852
oose	-3853
ough	-3854
pose	-3855
uary	-3856
ysol	-3857
▁asp	-3858
▁cds	-3859
▁cvs	-3860
▁dna	-3861
▁fle	-3862
▁gad	-3863
▁hom	-3864
▁jet	-3865
▁jug	-3866
▁own	-3867
▁ple	-3868
▁rim	-3869
▁rod	-3870
▁sev	-3871
▁sod	-3872
▁toe	-3873
▁unf	-3874
▁yop	-3875
afood	-3876
cakes	-3877
elina	-3878
enger	-3879
ilada	-3880
iring	-3881
lated	-3882
lorie	-3883
oleum	-3884
opard	-3885
ories	-3886
vetop	-3887
▁ador	-3888
▁aloe	-3889
▁cact	-3890
▁chex	-3891
▁drop	-3892
▁frie	-3893
▁goes	-3894
▁guit	-3895
▁hunt	-3896
▁know	-3897
▁lady	-3898
▁less	-3899
▁mand	-3900
▁nail	-3901
▁netw	-3902
▁nose	-3903
▁pane	-3904
▁pric	-3905
▁prom	-3906
▁rear	-3907
▁rich	-3908
▁sale	-3909
▁shag	-3910
▁stir	-3911
▁swim	-3912
▁tops	-3913
▁turn	-3914
▁vaio	-3915
▁vent	-3916
▁whip	-3917
atcher	-3918
ellite	-3919
itions	-3920
▁built	-3921
▁chops	-3922
▁comic	-3923
▁dials	-3924
▁dough	-3925
▁drawn	-3926
▁dream	-3927
▁entry	-3928
▁fancy	-3929
▁fluid	-3930
▁gener	-3931
▁girls	-3932
▁ledge	-3933
▁lysol	-3934
▁mayon	-3935
▁meals	-3936
▁nylon	-3937
▁piled	-3938
▁pitch	-3939
▁quick	-3940
▁reach	-3941
▁recyc	-3942
▁rival	-3943
▁sciss	-3944
▁solve	-3945
▁sooth	-3946
▁spear	-3947
▁spell	-3948
▁split	-3949
▁stamp	-3950
▁tarot	-3951
▁tower	-3952
▁tully	-3953
▁utens	-3954
▁weigh	-3955
▁wired	-3956
▁woods	-3957
intment	-3958
▁answer	-3959
▁beauty	-3960
▁before	-3961
▁bundle	-3962
▁casing	-3963
▁cement	-3964
▁curled	-3965
▁dispos	-3966
▁drying	-3967
▁flakes	-3968
▁floors	-3969
▁fruits	-3970
▁gadget	-3971
▁hammer	-3972
▁manual	-3973
▁masala	-3974
▁memory	-3975
▁nearby	-3976
▁partly	-3977
▁phones	-3978
▁plates	-3979
▁portra	-3980
▁relief	-3981
▁ribbon	-3982
▁rotini	-3983
▁scroll	-3984
▁shapes	-3985
▁spiral	-3986
▁sticks	-3987
▁wheels	-3988
▁zipper	-3989
▁account	-3990
▁arrange	-3991
▁believe	-3992
▁calorie	-3993
▁caramel	-3994
▁catcher	-3995
▁chopped	-3996
▁creases	-3997
▁cuisine	-3998
▁driving	-3999
▁fishing	-4000
▁flavors	-4001
▁garbage	-4002
▁gourmet	-4003
▁grounds	-4004
▁handles	-4005
▁illumin	-4006
▁knitted	-4007
▁leopard	-4008
▁lighted	-4009
▁network	-4010
▁pancake	-4011
▁popular	-4012
▁purpose	-4013
▁rainbow	-4014
▁seafood	-4015
▁stapler	-4016
▁support	-4017
▁version	-4018
▁walkway	-4019
▁yoplait	-4020
▁entrance	-4021
▁flowered	-4022
▁graphics	-4023
▁greenish	-4024
▁linoleum	-4025
▁obscured	-4026
▁pharmacy	-4027
▁printing	-4028
▁stovetop	-4029
▁straight	-4030
▁touchpad	-4031
▁bolognese	-4032
▁enchilada	-4033
▁essential	-4034
▁landscape	-4035
▁louisiana	-4036
▁marshalls	-4037
▁michelina	-4038
▁processor	-4039
▁raspberry	-4040
▁satellite	-4041
▁sunflower	-4042
▁chocolates	-4043
▁eyeglasses	-4044
▁flashlight	-4045
▁mayonnaise	-4046
▁seasonings	-4047
▁highlighted	-4048
20	-4049
dr	-4050
ru	-4051
apy	-4052
aso	-4053
bag	-4054
coa	-4055
ham	-4056
ily	-4057
itr	-4058
oph	-4059
son	-4060
zer	-4061
▁40	-4062
▁72	-4063
▁78	-4064
▁bi	-4065
▁ni	-4066
▁os	-4067
▁ry	-4068
ades	-4069
cept	-4070
estr	-4071
ired	-4072
ista	-4073
ites	-4074
lide	-4075
ligh	-4076
lled	-4077
mint	-4078
ngth	-4079
ocad	-4080
osol	-4081
rest	-4082
undy	-4083
▁150	-4084
▁apt	-4085
▁bob	-4086
▁bou	-4087
▁jaw	-4088
▁kat	-4089
▁mid	-4090
▁neg	-4091
▁orn	-4092
▁soy	-4093
▁tas	-4094
▁wed	-4095
ament	-4096
arian	-4097
chain	-4098
conut	-4099
ilted	-4100
iyaki	-4101
lenda	-4102
lorer	-4103
ongue	-4104
paste	-4105
stand	-4106
ttuce	-4107
▁anti	-4108
▁bent	-4109
▁burn	-4110
▁chem	-4111
▁deck	-4112
▁fash	-4113
▁fine	-4114
▁gent	-4115
▁geor	-4116
▁john	-4117
▁kash	-4118
▁lave	-4119
▁lead	-4120
▁lear	-4121
▁minn	-4122
▁neon	-4123
▁pear	-4124
▁pens	-4125
▁sain	-4126
▁scar	-4127
▁sets	-4128
▁site	-4129
▁tang	-4130
▁tide	-4131
▁upon	-4132
▁vine	-4133
▁waff	-4134
▁wool	-4135
▁york	-4136
isbury	-4137
lucent	-4138
onding	-4139
ooting	-4140
▁antib	-4141
▁appet	-4142
▁backs	-4143
▁blood	-4144
▁bound	-4145
▁caffe	-4146
▁cheet	-4147
▁cockt	-4148
▁cocoa	-4149
▁drain	-4150
▁favor	-4151
▁fedex	-4152
▁flags	-4153
▁flyer	-4154
▁found	-4155
▁given	-4156
▁ident	-4157
▁index	-4158
▁inser	-4159
▁jello	-4160
▁lager	-4161
▁marks	-4162
▁numer	-4163
▁pairs	-4164
▁paste	-4165
▁penne	-4166
▁range	-4167
▁seven	-4168
▁takes	-4169
▁taste	-4170
▁tools	-4171
▁vinyl	-4172
▁vista	-4173
▁whose	-4174
▁zebra	-4175
estrone	-4176
ination	-4177
oration	-4178
▁avocad	-4179
▁binder	-4180
▁bushes	-4181
▁cactus	-4182
▁darker	-4183
▁desert	-4184
▁fluffy	-4185
▁flying	-4186
▁helmet	-4187
▁hoodie	-4188
▁insect	-4189
▁length	-4190
▁making	-4191
▁nation	-4192
▁nearly	-4193
▁output	-4194
▁panini	-4195
▁phrase	-4196
▁plaque	-4197
▁really	-4198
▁rolled	-4199
▁slices	-4200
▁spring	-4201
▁techno	-4202
▁tongue	-4203
▁winter	-4204
▁aerosol	-4205
▁almonds	-4206
▁artwork	-4207
▁banquet	-4208
▁berries	-4209
▁blender	-4210
▁bottled	-4211
▁braised	-4212
▁burgers	-4213
▁coconut	-4214
▁crystal	-4215
▁cutting	-4216
▁daytime	-4217
▁doorway	-4218
▁doritos	-4219
▁dropper	-4220
▁entered	-4221
▁fashion	-4222
▁fixture	-4223
▁lettuce	-4224
▁maxwell	-4225
▁olympus	-4226
▁passion	-4227
▁pickles	-4228
▁project	-4229
▁readout	-4230
▁rewards	-4231
▁rounded	-4232
▁smiling	-4233
▁smoking	-4234
▁splenda	-4235
▁therapy	-4236
▁univers	-4237
▁vinegar	-4238
▁working	-4239
▁anything	-4240
▁athletic	-4241
▁blankets	-4242
▁branding	-4243
▁brownish	-4244
▁burgundy	-4245
▁collared	-4246
▁elephant	-4247
▁explorer	-4248
▁featured	-4249
▁highligh	-4250
▁interior	-4251
▁keychain	-4252
▁landline	-4253
▁lavender	-4254
▁learning	-4255
▁lemonade	-4256
▁lighting	-4257
▁ointment	-4258
▁ornament	-4259
▁portrait	-4260
▁pressing	-4261
▁pretzels	-4262
▁scissors	-4263
▁shopping	-4264
▁soothing	-4265
▁steering	-4266
▁teriyaki	-4267
▁component	-4268
▁computers	-4269
▁important	-4270
▁retriever	-4271
▁salisbury	-4272
▁scratched	-4273
▁sparkling	-4274
▁statement	-4275
▁australian	-4276
▁disposable	-4277
▁minestrone	-4278
▁toothpaste	-4279
▁vertically	-4280
▁illuminated	-4281
▁translucent	-4282
ga	-4283
gb	-4284
og	-4285
xe	-4286
zy	-4287
alo	-4288
ano	-4289
eek	-4290
eur	-4291
fla	-4292
gth	-4293
ida	-4294
ips	-4295
iry	-4296
joy	-4297
leg	-4298
nch	-4299
oen	-4300
oke	-4301
ota	-4302
rod	-4303
ste	-4304
▁22	-4305
▁32	-4306
▁mr	-4307
▁ov	-4308
▁xp	-4309
abet	-4310
asts	-4311
asty	-4312
aved	-4313
aver	-4314
ella	-4315
ells	-4316
irin	-4317
mine	-4318
ords	-4319
pucc	-4320
ried	-4321
ught	-4322
ways	-4323
▁adj	-4324
▁ank	-4325
▁axe	-4326
▁dut	-4327
▁eld	-4328
▁etc	-4329
▁glu	-4330
▁hug	-4331
▁inv	-4332
▁kne	-4333
▁mel	-4334
▁mor	-4335
▁occ	-4336
▁ori	-4337
▁paj	-4338
▁pup	-4339
▁sus	-4340
▁tay	-4341
alaxy	-4342
bread	-4343
chair	-4344
cover	-4345
eeled	-4346
eline	-4347
idden	-4348
ifier	-4349
iting	-4350
nders	-4351
oenix	-4352
olded	-4353
pants	-4354
tenna	-4355
▁aqua	-4356
▁asks	-4357
▁auto	-4358
▁bios	-4359
▁bite	-4360
▁cast	-4361
▁clos	-4362
▁cran	-4363
▁dvds	-4364
▁educ	-4365
▁germ	-4366
▁hist	-4367
▁hund	-4368
▁hydr	-4369
▁insu	-4370
▁lazy	-4371
▁load	-4372
▁maid	-4373
▁mary	-4374
▁mass	-4375
▁mate	-4376
▁ment	-4377
▁pole	-4378
▁ques	-4379
▁raid	-4380
▁rope	-4381
▁self	-4382
▁sole	-4383
▁stew	-4384
▁stro	-4385
▁sund	-4386
▁tags	-4387
▁wars	-4388
▁wide	-4389
▁wish	-4390
ension	-4391
ganoff	-4392
istics	-4393
mallow	-4394
rength	-4395
shield	-4396
uments	-4397
▁among	-4398
▁brass	-4399
▁catal	-4400
▁cents	-4401
▁colum	-4402
▁curry	-4403
▁dates	-4404
▁death	-4405
▁faded	-4406
▁fully	-4407
▁grill	-4408
▁happy	-4409
▁horse	-4410
▁kashi	-4411
▁kinds	-4412
▁latte	-4413
▁level	-4414
▁logos	-4415
▁lunch	-4416
▁motor	-4417
▁parli	-4418
▁queen	-4419
▁rough	-4420
▁royal	-4421
▁santa	-4422
▁shade	-4423
▁sheer	-4424
▁sword	-4425
▁third	-4426
▁toast	-4427
▁troph	-4428
▁twist	-4429
▁wallp	-4430
puccino	-4431
▁almond	-4432
▁barely	-4433
▁boston	-4434
▁burger	-4435
▁burrit	-4436
▁celebr	-4437
▁change	-4438
▁consum	-4439
▁cooker	-4440
▁cooler	-4441
▁cosmet	-4442
▁covers	-4443
▁cursor	-4444
▁dental	-4445
▁disney	-4446
▁domino	-4447
▁drinks	-4448
▁driver	-4449
▁entree	-4450
▁facial	-4451
▁follow	-4452
▁galaxy	-4453
▁greens	-4454
▁hidden	-4455
▁indoor	-4456
▁master	-4457
▁mother	-4458
▁ornate	-4459
▁points	-4460
▁promot	-4461
▁pushed	-4462
▁review	-4463
▁schwan	-4464
▁simple	-4465
▁skinny	-4466
▁sloppy	-4467
▁sodium	-4468
▁sprink	-4469
▁static	-4470
▁stored	-4471
▁summer	-4472
▁taylor	-4473
▁values	-4474
▁veggie	-4475
▁vision	-4476
▁within	-4477
▁antenna	-4478
▁aptamil	-4479
▁aspirin	-4480
▁british	-4481
▁channel	-4482
▁choices	-4483
▁clicker	-4484
▁concent	-4485
▁cursive	-4486
▁diamond	-4487
▁drivers	-4488
▁headset	-4489
▁hundred	-4490
▁liqueur	-4491
▁longhor	-4492
▁manwich	-4493
▁packets	-4494
▁phoenix	-4495
▁pillows	-4496
▁pitcher	-4497
▁recipes	-4498
▁reduced	-4499
▁secrets	-4500
▁seventy	-4501
▁sliding	-4502
▁trouble	-4503
▁veggies	-4504
▁vending	-4505
▁whipped	-4506
irational	-4507
▁animated	-4508
▁checking	-4509
▁classics	-4510
▁facebook	-4511
▁hardware	-4512
▁impaired	-4513
▁matching	-4514
▁medicare	-4515
▁scribble	-4516
▁seasoned	-4517
▁shelving	-4518
▁sneakers	-4519
▁strength	-4520
▁fashioned	-4521
▁insulated	-4522
▁prompting	-4523
▁sunscreen	-4524
▁treatment	-4525
▁walgreens	-4526
▁cappuccino	-4527
▁parliament	-4528
▁stroganoff	-4529
▁sunglasses	-4530
▁vegetarian	-4531
▁windshield	-4532
▁arrangement	-4533
▁butterflies	-4534
▁marshmallow	-4535
▁applications	-4536
▁verification	-4537
▁inspirational	-4538
▁congratulations	-4539
bs	-4540
di	-4541
fl	-4542
pm	-4543
sy	-4544
yn	-4545
yo	-4546
can	-4547
cho	-4548
col	-4549
dsk	-4550
ift	-4551
ius	-4552
mit	-4553
nia	-4554
pal	-4555
pen	-4556
pia	-4557
pot	-4558
ris	-4559
tea	-4560
ule	-4561
urb	-4562
▁07	-4563
▁21	-4564
▁27	-4565
▁48	-4566
▁da	-4567
▁ev	-4568
▁ky	-4569
▁mp	-4570
▁pm	-4571
acey	-4572
addy	-4573
aked	-4574
anas	-4575
apan	-4576
arth	-4577
bras	-4578
card	-4579
ccer	-4580
clip	-4581
elly	-4582
ided	-4583
ifor	-4584
kdsk	-4585
lers	-4586
lett	-4587
oned	-4588
onze	-4589
pson	-4590
ribe	-4591
rika	-4592
ters	-4593
wash	-4594
yond	-4595
▁500	-4596
▁due	-4597
▁fem	-4598
▁gen	-4599
▁hol	-4600
▁odd	-4601
▁oth	-4602
▁rag	-4603
▁sem	-4604
▁sin	-4605
▁tis	-4606
▁unc	-4607
▁ups	-4608
▁wet	-4609
anced	-4610
anged	-4611
eling	-4612
ences	-4613
gebra	-4614
ining	-4615
istic	-4616
itive	-4617
lined	-4618
ption	-4619
rella	-4620
rings	-4621
roxim	-4622
shirt	-4623
stuff	-4624
tered	-4625
ustic	-4626
▁atte	-4627
▁bige	-4628
▁buff	-4629
▁bugs	-4630
▁cage	-4631
▁cels	-4632
▁comf	-4633
▁cour	-4634
▁dirk	-4635
▁duty	-4636
▁elev	-4637
▁foli	-4638
▁frag	-4639
▁hill	-4640
▁horn	-4641
▁jamb	-4642
▁jaws	-4643
▁lush	-4644
▁mama	-4645
▁muds	-4646
▁neut	-4647
▁oats	-4648
▁paso	-4649
▁pool	-4650
▁rang	-4651
▁silk	-4652
▁slow	-4653
▁sold	-4654
▁sure	-4655
▁taco	-4656
▁thai	-4657
▁thru	-4658
▁tila	-4659
▁walm	-4660
▁warm	-4661
▁whit	-4662
▁yoga	-4663
abetes	-4664
graves	-4665
ichoke	-4666
isting	-4667
tergaz	-4668
▁added	-4669
▁alert	-4670
▁apric	-4671
▁balan	-4672
▁beets	-4673
▁brook	-4674
▁bunny	-4675
▁cells	-4676
▁const	-4677
▁debit	-4678
▁desks	-4679
▁elbow	-4680
▁elder	-4681
▁epson	-4682
▁hangs	-4683
▁illeg	-4684
▁ivory	-4685
▁japan	-4686
▁kacey	-4687
▁least	-4688
▁lists	-4689
▁oreos	-4690
▁otter	-4691
▁owner	-4692
▁picks	-4693
▁plush	-4694
▁porch	-4695
▁puffy	-4696
▁rainy	-4697
▁roman	-4698
▁seats	-4699
▁sharp	-4700
▁sorts	-4701
▁squee	-4702
▁talks	-4703
▁tasty	-4704
▁texts	-4705
▁tight	-4706
▁total	-4707
▁waist	-4708
ibility	-4709
ifornia	-4710
▁adjust	-4711
▁analog	-4712
▁beyond	-4713
▁bluish	-4714
▁branch	-4715
▁bronze	-4716
▁bullet	-4717
▁celery	-4718
▁chiles	-4719
▁chkdsk	-4720
▁contin	-4721
▁crease	-4722
▁create	-4723
▁emblem	-4724
▁engine	-4725
▁hearts	-4726
▁killer	-4727
▁magnet	-4728
▁manage	-4729
▁miller	-4730
▁moving	-4731
▁others	-4732
▁paypal	-4733
▁police	-4734
▁popped	-4735
▁proper	-4736
▁quaker	-4737
▁record	-4738
▁rising	-4739
▁shaggy	-4740
▁shortc	-4741
▁soccer	-4742
▁steaks	-4743
▁supply	-4744
▁themed	-4745
▁unused	-4746
acterial	-4747
▁algebra	-4748
▁avocado	-4749
▁bananas	-4750
▁bigelow	-4751
▁blister	-4752
▁breasts	-4753
▁celsius	-4754
▁cheetos	-4755
▁chilies	-4756
▁depicts	-4757
▁edition	-4758
▁exposed	-4759
▁falling	-4760
▁folgers	-4761
▁foliage	-4762
▁freezer	-4763
▁grayish	-4764
▁growing	-4765
▁handbag	-4766
▁lightly	-4767
▁lockers	-4768
▁markers	-4769
▁outlets	-4770
▁paneled	-4771
▁paprika	-4772
▁peanuts	-4773
▁profess	-4774
▁quilted	-4775
▁rotated	-4776
▁sneaker	-4777
▁stories	-4778
▁tilapia	-4779
▁tissues	-4780
▁trimmed	-4781
▁walmart	-4782
▁wrinkle	-4783
struction	-4784
▁advanced	-4785
▁approxim	-4786
▁arranged	-4787
▁cocktail	-4788
▁concentr	-4789
▁delivery	-4790
▁detailed	-4791
▁diabetes	-4792
▁directly	-4793
▁drawings	-4794
▁earrings	-4795
▁figurine	-4796
▁greenery	-4797
▁inserted	-4798
▁intergaz	-4799
▁japanese	-4800
▁longhorn	-4801
▁marinara	-4802
▁mudslide	-4803
▁observed	-4804
▁oriental	-4805
▁outdoors	-4806
▁placemat	-4807
▁programs	-4808
▁recorder	-4809
▁services	-4810
▁swimming	-4811
▁training	-4812
▁utensils	-4813
▁visually	-4814
▁weighing	-4815
▁apartment	-4816
▁arrowhead	-4817
▁artichoke	-4818
▁ballpoint	-4819
▁churchill	-4820
▁cranberry	-4821
▁cushioned	-4822
▁detailing	-4823
▁figurines	-4824
▁foodstuff	-4825
▁illegible	-4826
▁laminated	-4827
▁mcdonalds	-4828
▁mouthwash	-4829
▁musgraves	-4830
▁passenger	-4831
▁triangles	-4832
▁troublesh	-4833
▁wallpaper	-4834
▁assortment	-4835
▁california	-4836
▁connection	-4837
▁department	-4838
▁protective	-4839
▁responding	-4840
▁sweatshirt	-4841
▁technology	-4842
▁upholstery	-4843
▁washington	-4844
▁illustrated	-4845
▁moisturizer	-4846
▁restoration	-4847
▁individually	-4848
▁moisturizing	-4849
▁approximately	-4850
ba	-4851
bb	-4852
gi	-4853
ou	-4854
ane	-4855
cha	-4856
fer	-4857
gin	-4858
hoy	-4859
ilu	-4860
inf	-4861
ism	-4862
los	-4863
meg	-4864
mpy	-4865
oci	-4866
onn	-4867
oot	-4868
res	-4869
rub	-4870
tub	-4871
vas	-4872
zor	-4873
▁36	-4874
▁42	-4875
▁69	-4876
▁ii	-4877
▁jv	-4878
▁mi	-4879
▁py	-4880
alle	-4881
auge	-4882
care	-4883
cles	-4884
elve	-4885
enta	-4886
ffic	-4887
icer	-4888
illy	-4889
iron	-4890
istr	-4891
ivea	-4892
izon	-4893
milk	-4894
ners	-4895
nnel	-4896
novo	-4897
odak	-4898
oman	-4899
pend	-4900
ppos	-4901
ties	-4902
ulin	-4903
vern	-4904
▁250	-4905
▁aco	-4906
▁age	-4907
▁crt	-4908
▁dam	-4909
▁dos	-4910
▁ela	-4911
▁fen	-4912
▁hit	-4913
▁ion	-4914
▁isn	-4915
▁jim	-4916
▁kay	-4917
▁ken	-4918
▁lov	-4919
▁mom	-4920
▁mul	-4921
▁oct	-4922
▁owl	-4923
▁ped	-4924
▁raw	-4925
▁ron	-4926
▁seg	-4927
▁spa	-4928
▁suv	-4929
▁umb	-4930
▁vol	-4931
▁wii	-4932
adium	-4933
alaya	-4934
almat	-4935
ances	-4936
anser	-4937
asing	-4938
erous	-4939
ightt	-4940
itrus	-4941
lines	-4942
omach	-4943
orton	-4944
owder	-4945
plash	-4946
riage	-4947
rying	-4948
spray	-4949
stone	-4950
ttucc	-4951
ucing	-4952
▁ahoy	-4953
▁arch	-4954
▁asda	-4955
▁balm	-4956
▁bicy	-4957
▁boat	-4958
▁bone	-4959
▁caps	-4960
▁carb	-4961
▁crab	-4962
▁duck	-4963
▁earl	-4964
▁exam	-4965
▁faux	-4966
▁jala	-4967
▁kona	-4968
▁lift	-4969
▁mild	-4970
▁mott	-4971
▁paws	-4972
▁plat	-4973
▁priz	-4974
▁quiz	-4975
▁rais	-4976
▁roni	-4977
▁rows	-4978
▁safe	-4979
▁scen	-4980
▁sewn	-4981
▁tips	-4982
▁trop	-4983
▁were	-4984
▁west	-4985
anical	-4986
braska	-4987
clipse	-4988
ensing	-4989
etooth	-4990
infect	-4991
ternut	-4992
▁ankle	-4993
▁badge	-4994
▁basic	-4995
▁bible	-4996
▁bills	-4997
▁bloom	-4998
▁carol	-4999
▁chamb	-5000
▁chart	-5001
▁comes	-5002
▁cones	-5003
▁daddy	-5004
▁deter	-5005
▁diary	-5006
▁fixed	-5007
▁gates	-5008
▁gauge	-5009
▁grams	-5010
▁guard	-5011
▁heads	-5012
▁holes	-5013
▁hunts	-5014
▁invol	-5015
▁jelly	-5016
▁juicy	-5017
▁known	-5018
▁kodak	-5019
▁miner	-5020
▁minim	-5021
▁mints	-5022
▁nails	-5023
▁negot	-5024
▁nivea	-5025
▁occup	-5026
▁oppos	-5027
▁outer	-5028
▁puppy	-5029
▁quart	-5030
▁queso	-5031
▁razor	-5032
▁resid	-5033
▁robot	-5034
▁saudi	-5035
▁shrub	-5036
▁snake	-5037
▁stair	-5038
▁these	-5039
▁tonic	-5040
▁whisk	-5041
entific	-5042
▁active	-5043
▁associ	-5044
▁author	-5045
▁beaded	-5046
▁blocks	-5047
▁canvas	-5048
▁citrus	-5049
▁copper	-5050
▁crumbs	-5051
▁custom	-5052
▁dalmat	-5053
▁digits	-5054
▁dotted	-5055
▁edible	-5056
▁europe	-5057
▁fisher	-5058
▁gloves	-5059
▁halves	-5060
▁hanged	-5061
▁itself	-5062
▁kidney	-5063
▁larger	-5064
▁lenovo	-5065
▁movies	-5066
▁muffin	-5067
▁nestea	-5068
▁newman	-5069
▁nightt	-5070
▁ounces	-5071
▁padded	-5072
▁pantry	-5073
▁pasted	-5074
▁please	-5075
▁pounds	-5076
▁purell	-5077
▁ribbed	-5078
▁sample	-5079
▁second	-5080
▁somewh	-5081
▁source	-5082
▁sticky	-5083
▁sunset	-5084
▁twelve	-5085
▁walker	-5086
tionship	-5087
▁activia	-5088
▁apricot	-5089
▁bathtub	-5090
▁boiling	-5091
▁bouquet	-5092
▁buffalo	-5093
▁burning	-5094
▁catalog	-5095
▁chapter	-5096
▁chewing	-5097
▁chowder	-5098
▁comfort	-5099
▁cubicle	-5100
▁delight	-5101
▁eclipse	-5102
▁fettucc	-5103
▁flannel	-5104
▁folding	-5105
▁framing	-5106
▁frosted	-5107
▁glowing	-5108
▁jalapen	-5109
▁magenta	-5110
▁ovation	-5111
▁pointer	-5112
▁scanner	-5113
▁squeeze	-5114
▁stadium	-5115
▁stomach	-5116
▁telling	-5117
▁topping	-5118
▁uniform	-5119
▁verizon	-5120
▁viewing	-5121
▁waiting	-5122
▁whitish	-5123
▁acoustic	-5124
▁blocking	-5125
▁broadway	-5126
▁bulletin	-5127
▁caffeine	-5128
▁carrying	-5129
▁cleanser	-5130
▁crockpot	-5131
▁describe	-5132
▁finished	-5133
▁goldfish	-5134
▁kirkland	-5135
▁laminate	-5136
▁magnetic	-5137
▁marinade	-5138
▁nebraska	-5139
▁numbered	-5140
▁numerous	-5141
▁pastries	-5142
▁periodic	-5143
▁purchase	-5144
▁reaching	-5145
▁receiver	-5146
▁reliever	-5147
▁requires	-5148
▁separate	-5149
▁stitched	-5150
▁sunlight	-5151
▁switched	-5152
▁tropical	-5153
▁umbrella	-5154
▁warnings	-5155
▁alcoholic	-5156
▁appearing	-5157
▁bluetooth	-5158
▁butternut	-5159
▁campbells	-5160
▁condiment	-5161
▁disinfect	-5162
▁extension	-5163
▁fragrance	-5164
▁hairspray	-5165
▁hardcover	-5166
▁headphone	-5167
▁jambalaya	-5168
▁medicated	-5169
▁mushrooms	-5170
▁nighttime	-5171
▁protector	-5172
▁recycling	-5173
▁backsplash	-5174
▁brightness	-5175
▁buttermilk	-5176
▁embroidery	-5177
▁identified	-5178
▁negotiable	-5179
▁obstructed	-5180
▁pineapples	-5181
▁scientific	-5182
▁sweatpants	-5183
▁understand	-5184
▁whiteboard	-5185
▁accessories	-5186
▁centerpiece	-5187
▁programming	-5188
▁upholstered	-5189
▁relationship	-5190
▁accessibility	-5191
▁troubleshooting	-5192
30	-5193
gu	-5194
ii	-5195
ls	-5196
nc	-5197
tr	-5198
we	-5199
azo	-5200
azz	-5201
bre	-5202
ify	-5203
irm	-5204
kee	-5205
lan	-5206
lec	-5207
mep	-5208
nic	-5209
oes	-5210
orr	-5211
oss	-5212
por	-5213
rek	-5214
rim	-5215
sue	-5216
ulp	-5217
ums	-5218
ury	-5219
zzi	-5220
▁03	-5221
▁17	-5222
▁43	-5223
▁60	-5224
▁68	-5225
▁80	-5226
▁96	-5227
▁99	-5228
▁ji	-5229
acks	-5230
acle	-5231
aflu	-5232
asco	-5233
boss	-5234
cela	-5235
cher	-5236
coun	-5237
dish	-5238
edge	-5239
ency	-5240
foot	-5241
gate	-5242
guin	-5243
iday	-5244
ient	-5245
ifer	-5246
iner	-5247
ires	-5248
irno	-5249
kary	-5250
mber	-5251
mble	-5252
nday	-5253
otes	-5254
otto	-5255
raut	-5256
rier	-5257
seat	-5258
sley	-5259
spot	-5260
▁ads	-5261
▁amp	-5262
▁bin	-5263
▁bru	-5264
▁enc	-5265
▁fel	-5266
▁fox	-5267
▁fry	-5268
▁gun	-5269
▁jvc	-5270
▁lee	-5271
▁lie	-5272
▁lip	-5273
▁lyn	-5274
▁mad	-5275
▁mal	-5276
▁nfl	-5277
▁nic	-5278
▁pom	-5279
▁rid	-5280
▁rum	-5281
▁sar	-5282
▁soo	-5283
▁spo	-5284
▁tac	-5285
▁tai	-5286
▁tic	-5287
▁vas	-5288
▁wax	-5289
▁yen	-5290
allon	-5291
amboo	-5292
andel	-5293
apers	-5294
arium	-5295
ators	-5296
burst	-5297
comes	-5298
edded	-5299
ented	-5300
fting	-5301
ggage	-5302
ients	-5303
ilure	-5304
inged	-5305
ipton	-5306
istry	-5307
onnay	-5308
onsin	-5309
ooked	-5310
oprop	-5311
plane	-5312
porin	-5313
racle	-5314
uffle	-5315
ution	-5316
utons	-5317
vable	-5318
valid	-5319
▁2000	-5320
▁bind	-5321
▁bits	-5322
▁butt	-5323
▁cent	-5324
▁clam	-5325
▁clay	-5326
▁cray	-5327
▁cube	-5328
▁deer	-5329
▁diar	-5330
▁ends	-5331
▁febr	-5332
▁feel	-5333
▁film	-5334
▁flop	-5335
▁frog	-5336
▁gabb	-5337
▁gate	-5338
▁glue	-5339
▁golf	-5340
▁grid	-5341
▁hear	-5342
▁hell	-5343
▁hole	-5344
▁imac	-5345
▁jerk	-5346
▁meet	-5347
▁mill	-5348
▁misc	-5349
▁prop	-5350
▁rele	-5351
▁ribs	-5352
▁rite	-5353
▁rugs	-5354
▁seem	-5355
▁send	-5356
▁sens	-5357
▁skil	-5358
▁sore	-5359
▁spin	-5360
▁tazo	-5361
▁tone	-5362
▁trip	-5363
▁vera	-5364
▁vint	-5365
▁wasp	-5366
▁wisc	-5367
▁wolf	-5368
bossed	-5369
celain	-5370
ective	-5371
father	-5372
forest	-5373
irnoff	-5374
uction	-5375
▁ahead	-5376
▁areas	-5377
▁asian	-5378
▁berry	-5379
▁bowls	-5380
▁cakes	-5381
▁chard	-5382
▁charm	-5383
▁chees	-5384
▁chill	-5385
▁codes	-5386
▁combo	-5387
▁cozzi	-5388
▁dolce	-5389
▁dozen	-5390
▁earth	-5391
▁enjoy	-5392
▁erase	-5393
▁fanta	-5394
▁fills	-5395
▁flame	-5396
▁grout	-5397
▁hours	-5398
▁icing	-5399
▁issue	-5400
▁jiffy	-5401
▁knees	-5402
▁knorr	-5403
▁loose	-5404
▁meant	-5405
▁mince	-5406
▁moose	-5407
▁nasal	-5408
▁nutri	-5409
▁piggy	-5410
▁relax	-5411
▁relig	-5412
▁roses	-5413
▁scarf	-5414
▁scrub	-5415
▁sculp	-5416
▁shine	-5417
▁sizes	-5418
▁stool	-5419
▁study	-5420
▁swing	-5421
▁taped	-5422
▁throw	-5423
▁units	-5424
▁wants	-5425
▁worth	-5426
▁wound	-5427
▁write	-5428
erkraut	-5429
idifier	-5430
ilities	-5431
opropyl	-5432
ossible	-5433
▁always	-5434
▁apples	-5435
▁bamboo	-5436
▁brands	-5437
▁carrot	-5438
▁columb	-5439
▁concer	-5440
▁config	-5441
▁course	-5442
▁croiss	-5443
▁diaper	-5444
▁except	-5445
▁expiry	-5446
▁female	-5447
▁friend	-5448
▁gallon	-5449
▁gentle	-5450
▁george	-5451
▁govern	-5452
▁guitar	-5453
▁haired	-5454
▁hallow	-5455
▁inches	-5456
▁lipton	-5457
▁mandar	-5458
▁marked	-5459
▁minced	-5460
▁minnie	-5461
▁monday	-5462
▁panels	-5463
▁pinned	-5464
▁postal	-5465
▁prices	-5466
▁prints	-5467
▁racing	-5468
▁reader	-5469
▁reprod	-5470
▁result	-5471
▁reward	-5472
▁ripped	-5473
▁seeing	-5474
▁shaver	-5475
▁singer	-5476
▁spades	-5477
▁straps	-5478
▁stream	-5479
▁stress	-5480
▁sunday	-5481
▁swirls	-5482
▁swords	-5483
▁thomas	-5484
▁thread	-5485
▁toward	-5486
▁trying	-5487
▁unread	-5488
▁wicker	-5489
idential	-5490
karyotic	-5491
▁airport	-5492
▁barilla	-5493
▁bedding	-5494
▁biology	-5495
▁britain	-5496
▁butcher	-5497
▁certain	-5498
▁chambre	-5499
▁clearly	-5500
▁columns	-5501
▁complex	-5502
▁confirm	-5503
▁consist	-5504
▁crowded	-5505
▁dinners	-5506
▁failure	-5507
▁figures	-5508
▁focused	-5509
▁folders	-5510
▁gabbana	-5511
▁highway	-5512
▁history	-5513
▁holiday	-5514
▁hotspot	-5515
▁hugging	-5516
▁invalid	-5517
▁luggage	-5518
▁mailbox	-5519
▁measure	-5520
▁miracle	-5521
▁mission	-5522
▁mixture	-5523
▁outline	-5524
▁parsley	-5525
▁patties	-5526
▁penguin	-5527
▁physics	-5528
▁pointed	-5529
▁popping	-5530
▁prepack	-5531
▁preview	-5532
▁records	-5533
▁recycle	-5534
▁reddish	-5535
▁risotto	-5536
▁screens	-5537
▁sharpie	-5538
▁spotted	-5539
▁stamped	-5540
▁station	-5541
▁strands	-5542
▁strings	-5543
▁student	-5544
▁subject	-5545
▁supreme	-5546
▁systems	-5547
▁tabasco	-5548
▁tenders	-5549
▁traffic	-5550
▁vintage	-5551
▁waffles	-5552
▁wedding	-5553
istration	-5554
▁airplane	-5555
▁backseat	-5556
▁barefoot	-5557
▁bicycles	-5558
▁bookcase	-5559
▁brownies	-5560
▁burritos	-5561
▁cookbook	-5562
▁croutons	-5563
▁darkened	-5564
▁diagrams	-5565
▁embedded	-5566
▁embossed	-5567
▁extended	-5568
▁favorite	-5569
▁february	-5570
▁formulas	-5571
▁frosting	-5572
▁graphing	-5573
▁mcdonald	-5574
▁opposite	-5575
▁provides	-5576
▁resemble	-5577
▁smirnoff	-5578
▁suitcase	-5579
▁theraflu	-5580
▁uncooked	-5581
▁unfolded	-5582
▁workbook	-5583
▁backwards	-5584
▁carpeting	-5585
▁chemistry	-5586
▁classroom	-5587
▁crocheted	-5588
▁headboard	-5589
▁indicates	-5590
▁isopropyl	-5591
▁languages	-5592
▁moonlight	-5593
▁numerical	-5594
▁operation	-5595
▁paperback	-5596
▁porcelain	-5597
▁sculpture	-5598
▁sentences	-5599
▁spearmint	-5600
▁stretched	-5601
▁universal	-5602
▁wisconsin	-5603
▁adjustable	-5604
▁appliances	-5605
▁attempting	-5606
▁chardonnay	-5607
▁components	-5608
▁condiments	-5609
▁conditions	-5610
▁conference	-5611
▁explaining	-5612
▁impossible	-5613
▁positioned	-5614
▁rainforest	-5615
▁sandwiches	-5616
▁sauerkraut	-5617
▁storefront	-5618
▁unreadable	-5619
▁downloading	-5620
▁grandfather	-5621
▁promotional	-5622
▁refrigerant	-5623
▁residential	-5624
▁organization	-5625
▁strawberries	-5626
▁antibacterial	-5627
▁automatically	-5628
▁identification	-5629
11	-5630
50	-5631
ew	-5632
gh	-5633
gr	-5634
mm	-5635
ym	-5636
ani	-5637
aya	-5638
boy	-5639
cla	-5640
cop	-5641
daf	-5642
dor	-5643
ede	-5644
ega	-5645
epp	-5646
fin	-5647
gen	-5648
hey	-5649
ica	-5650
ief	-5651
iev	-5652
jor	-5653
mps	-5654
nos	-5655
omy	-5656
raz	-5657
rep	-5658
ude	-5659
une	-5660
upe	-5661
via	-5662
yst	-5663
zil	-5664
▁00	-5665
▁02	-5666
▁05	-5667
▁09	-5668
▁23	-5669
▁26	-5670
▁29	-5671
▁ja	-5672
▁ki	-5673
▁ko	-5674
▁mc	-5675
▁om	-5676
▁rc	-5677
ados	-5678
agne	-5679
agus	-5680
aine	-5681
amas	-5682
ania	-5683
anna	-5684
ateg	-5685
atus	-5686
bert	-5687
dern	-5688
down	-5689
erma	-5690
esta	-5691
esty	-5692
gest	-5693
ghan	-5694
hern	-5695
houe	-5696
iams	-5697
igat	-5698
ilac	-5699
ilaf	-5700
inct	-5701
inky	-5702
inse	-5703
ises	-5704
ivel	-5705
ixed	-5706
kein	-5707
long	-5708
look	-5709
made	-5710
mann	-5711
more	-5712
mpts	-5713
noun	-5714
ntro	-5715
olic	-5716
ooky	-5717
oper	-5718
play	-5719
quil	-5720
rain	-5721
reco	-5722
resh	-5723
rick	-5724
rida	-5725
rint	-5726
self	-5727
silk	-5728
sure	-5729
tine	-5730
umpl	-5731
urac	-5732
ures	-5733
vels	-5734
vity	-5735
wide	-5736
▁375	-5737
▁475	-5738
▁ace	-5739
▁bah	-5740
▁bbq	-5741
▁bic	-5742
▁ble	-5743
▁buy	-5744
▁dvr	-5745
▁dye	-5746
▁emp	-5747
▁fob	-5748
▁hen	-5749
▁hik	-5750
▁hut	-5751
▁ire	-5752
▁jan	-5753
▁lan	-5754
▁lou	-5755
▁meg	-5756
▁mis	-5757
▁pix	-5758
▁pub	-5759
▁que	-5760
▁ren	-5761
▁rev	-5762
▁sip	-5763
▁sos	-5764
▁sta	-5765
▁tul	-5766
▁tup	-5767
▁uno	-5768
▁vel	-5769
▁wan	-5770
▁yet	-5771
acher	-5772
antas	-5773
brush	-5774
erina	-5775
erton	-5776
estal	-5777
ience	-5778
ified	-5779
iotic	-5780
iprep	-5781
issan	-5782
izers	-5783
kebox	-5784
leans	-5785
lotch	-5786
neous	-5787
nosis	-5788
nyard	-5789
ooter	-5790
otine	-5791
raffe	-5792
ribul	-5793
sbury	-5794
terol	-5795
thern	-5796
zzare	-5797
▁2003	-5798
▁2007	-5799
▁2010	-5800
▁amaz	-5801
▁appe	-5802
▁beam	-5803
▁bose	-5804
▁boys	-5805
▁cila	-5806
▁cork	-5807
▁cute	-5808
▁dais	-5809
▁deal	-5810
▁dull	-5811
▁dyed	-5812
▁ears	-5813
▁edit	-5814
▁feed	-5815
▁gear	-5816
▁gets	-5817
▁goat	-5818
▁gras	-5819
▁happ	-5820
▁hers	-5821
▁hick	-5822
▁hort	-5823
▁hosp	-5824
▁inde	-5825
▁inqu	-5826
▁jama	-5827
▁jars	-5828
▁jazz	-5829
▁jung	-5830
▁kiev	-5831
▁lamb	-5832
▁masc	-5833
▁mean	-5834
▁much	-5835
▁nasa	-5836
▁neat	-5837
▁nike	-5838
▁nour	-5839
▁pins	-5840
▁pogo	-5841
▁poor	-5842
▁pops	-5843
▁puzz	-5844
▁quad	-5845
▁rail	-5846
▁root	-5847
▁ross	-5848
▁sard	-5849
▁seam	-5850
▁seed	-5851
▁semi	-5852
▁simp	-5853
▁slot	-5854
▁spik	-5855
▁spra	-5856
▁step	-5857
▁subt	-5858
▁toen	-5859
▁toes	-5860
▁toll	-5861
▁tomb	-5862
▁took	-5863
▁tour	-5864
▁tumb	-5865
▁twit	-5866
▁voss	-5867
▁ways	-5868
▁week	-5869
▁whey	-5870
▁yeni	-5871
abbing	-5872
antage	-5873
brador	-5874
dafone	-5875
elloni	-5876
icular	-5877
nounce	-5878
rinted	-5879
selman	-5880
selves	-5881
terine	-5882
ternal	-5883
▁adorn	-5884
▁adult	-5885
▁allow	-5886
▁alone	-5887
▁apart	-5888
▁aspar	-5889
▁award	-5890
▁beanz	-5891
▁billy	-5892
▁birds	-5893
▁bring	-5894
▁burst	-5895
▁casio	-5896
▁chalk	-5897
▁clubs	-5898
▁crest	-5899
▁crush	-5900
▁decal	-5901
▁deere	-5902
▁denom	-5903
▁dimly	-5904
▁disks	-5905
▁doesn	-5906
▁dumpl	-5907
▁dylan	-5908
▁elmer	-5909
▁energ	-5910
▁engra	-5911
▁fairy	-5912
▁final	-5913
▁fluff	-5914
▁hanna	-5915
▁hedge	-5916
▁hoses	-5917
▁india	-5918
▁indis	-5919
▁jerky	-5920
▁latch	-5921
▁leafy	-5922
▁links	-5923
▁lotto	-5924
▁march	-5925
▁menus	-5926
▁mixer	-5927
▁mocha	-5928
▁mommy	-5929
▁naked	-5930
▁offer	-5931
▁paved	-5932
▁persp	-5933
▁pilaf	-5934
▁polar	-5935
▁ports	-5936
▁pride	-5937
▁prong	-5938
▁redee	-5939
▁regal	-5940
▁rigat	-5941
▁rinse	-5942
▁saint	-5943
▁shift	-5944
▁shrek	-5945
▁since	-5946
▁skein	-5947
▁skies	-5948
▁skirt	-5949
▁slide	-5950
▁slots	-5951
▁smile	-5952
▁smoke	-5953
▁specs	-5954
▁storm	-5955
▁suede	-5956
▁surve	-5957
▁susan	-5958
▁tells	-5959
▁those	-5960
▁tubes	-5961
▁twins	-5962
▁ultra	-5963
▁vases	-5964
▁wimpy	-5965
ignment	-5966
itation	-5967
keeping	-5968
mercial	-5969
perware	-5970
ractive	-5971
raption	-5972
tionary	-5973
▁action	-5974
▁afghan	-5975
▁astros	-5976
▁balcon	-5977
▁battle	-5978
▁benton	-5979
▁boards	-5980
▁bought	-5981
▁brazil	-5982
▁bucket	-5983
▁cashew	-5984
▁chives	-5985
▁choles	-5986
▁choose	-5987
▁chunks	-5988
▁clorox	-5989
▁cracks	-5990
▁curved	-5991
▁dandel	-5992
▁dating	-5993
▁diagno	-5994
▁ending	-5995
▁ensure	-5996
▁fields	-5997
▁fiesta	-5998
▁filing	-5999
▁fillet	-6000
▁france	-6001
▁fritos	-6002
▁hiking	-6003
▁impega	-6004
▁indent	-6005
▁juicer	-6006
▁kitten	-6007
▁leafed	-6008
▁lifted	-6009
▁locker	-6010
▁martin	-6011
▁minute	-6012
▁modern	-6013
▁morton	-6014
▁motrin	-6015
▁nissan	-6016
▁normal	-6017
▁nutmeg	-6018
▁nyquil	-6019
▁papaya	-6020
▁parcel	-6021
▁peeled	-6022
▁petals	-6023
▁picnic	-6024
▁presum	-6025
▁reclin	-6026
▁retail	-6027
▁return	-6028
▁savory	-6029
▁scenic	-6030
▁served	-6031
▁shrink	-6032
▁shrubs	-6033
▁slinky	-6034
▁social	-6035
▁solved	-6036
▁spooky	-6037
▁stacks	-6038
▁stairs	-6039
▁stewed	-6040
▁stones	-6041
▁strand	-6042
▁submit	-6043
▁swivel	-6044
▁target	-6045
▁toffee	-6046
▁topped	-6047
▁tracks	-6048
▁triple	-6049
▁unique	-6050
▁unlock	-6051
▁unreco	-6052
▁wiring	-6053
▁worker	-6054
gnizable	-6055
ribullet	-6056
tergreen	-6057
zzarella	-6058
▁armrest	-6059
▁belongs	-6060
▁besides	-6061
▁breaded	-6062
▁brewers	-6063
▁bunched	-6064
▁bundled	-6065
▁capital	-6066
▁carrier	-6067
▁cartier	-6068
▁central	-6069
▁changes	-6070
▁circled	-6071
▁collect	-6072
▁comment	-6073
▁constit	-6074
▁corners	-6075
▁coupons	-6076
▁cracked	-6077
▁custard	-6078
▁discern	-6079
▁dressed	-6080
▁element	-6081
▁encased	-6082
▁florida	-6083
▁forearm	-6084
▁friends	-6085
▁general	-6086
▁generic	-6087
▁getting	-6088
▁giraffe	-6089
▁gravity	-6090
▁guitars	-6091
▁hershey	-6092
▁hickory	-6093
▁hortons	-6094
▁include	-6095
▁ireland	-6096
▁january	-6097
▁jukebox	-6098
▁lanyard	-6099
▁mailing	-6100
▁massage	-6101
▁mederma	-6102
▁members	-6103
▁menthol	-6104
▁mineral	-6105
▁mottled	-6106
▁muffins	-6107
▁napkins	-6108
▁orleans	-6109
▁pajamas	-6110
▁paralle	-6111
▁passata	-6112
▁payment	-6113
▁peeling	-6114
▁pinkish	-6115
▁planter	-6116
▁pretzel	-6117
▁prompts	-6118
▁removed	-6119
▁request	-6120
▁rowling	-6121
▁schwepp	-6122
▁seconds	-6123
▁segment	-6124
▁silhoue	-6125
▁similac	-6126
▁snowfla	-6127
▁spinach	-6128
▁splotch	-6129
▁stacker	-6130
▁staring	-6131
▁sunsilk	-6132
▁tickets	-6133
▁totally	-6134
▁tumbler	-6135
▁turning	-6136
▁updates	-6137
▁upwards	-6138
▁weather	-6139
▁wishing	-6140
ellaneous	-6141
▁announce	-6142
▁aquarium	-6143
▁armchair	-6144
▁articles	-6145
▁balanced	-6146
▁buttoned	-6147
▁carolina	-6148
▁catalina	-6149
▁cilantro	-6150
▁columbia	-6151
▁cosmetic	-6152
▁coverage	-6153
▁crumbled	-6154
▁cupcakes	-6155
▁customer	-6156
▁decorate	-6157
▁downward	-6158
▁elevator	-6159
▁european	-6160
▁external	-6161
▁followed	-6162
▁grabbing	-6163
▁hellmann	-6164
▁hospital	-6165
▁jalapeno	-6166
▁kirkwood	-6167
▁knitting	-6168
▁labrador	-6169
▁mandarin	-6170
▁moviprep	-6171
▁nicotine	-6172
▁northern	-6173
▁outcomes	-6174
▁ovaltine	-6175
▁passport	-6176
▁pedestal	-6177
▁physical	-6178
▁postmark	-6179
▁pressure	-6180
▁properly	-6181
▁reflects	-6182
▁register	-6183
▁rigatoni	-6184
▁riperton	-6185
▁sardines	-6186
▁sentence	-6187
▁somewhat	-6188
▁starring	-6189
▁strainer	-6190
▁students	-6191
▁trophies	-6192
▁vehicles	-6193
▁vodafone	-6194
▁washable	-6195
▁williams	-6196
▁wrappers	-6197
tinguisher	-6198
▁asparagus	-6199
▁ballerina	-6200
▁champagne	-6201
▁completed	-6202
▁contained	-6203
▁dandelion	-6204
▁determine	-6205
▁diagnosis	-6206
▁dumplings	-6207
▁extending	-6208
▁fisherman	-6209
▁flavoring	-6210
▁happiness	-6211
▁imprinted	-6212
▁listerine	-6213
▁magazines	-6214
▁musselman	-6215
▁obscuring	-6216
▁paperwork	-6217
▁placemats	-6218
▁playhouse	-6219
▁preparing	-6220
▁removable	-6221
▁residents	-6222
▁sainsbury	-6223
▁searching	-6224
▁shortcake	-6225
▁shortcuts	-6226
▁starburst	-6227
▁swordfish	-6228
▁tombstone	-6229
▁verifying	-6230
▁additional	-6231
▁appetizers	-6232
▁assignment	-6233
▁attractive	-6234
▁bolognaise	-6235
▁commercial	-6236
▁concerning	-6237
▁dictionary	-6238
▁drumsticks	-6239
▁expression	-6240
▁fettuccine	-6241
▁government	-6242
▁highlights	-6243
▁mozzarella	-6244
▁nationwide	-6245
▁performing	-6246
▁retrievers	-6247
▁stretching	-6248
▁tupperware	-6249
▁vegetation	-6250
tinguishable	-6251
▁breadsticks	-6252
▁celebrating	-6253
▁cholesterol	-6254
▁contraption	-6255
▁elderflower	-6256
▁highlighter	-6257
▁instruments	-6258
▁medications	-6259
▁nutribullet	-6260
▁obstructing	-6261
▁performance	-6262
▁perspective	-6263
▁prepackaged	-6264
▁reproducing	-6265
▁wintergreen	-6266
▁commandments	-6267
▁construction	-6268
▁denomination	-6269
▁extinguisher	-6270
▁housekeeping	-6271
▁professional	-6272
▁standardized	-6273
▁temperatures	-6274
▁illustrations	-6275
▁miscellaneous	-6276
▁unrecognizable	-6277
05	-6278
21	-6279
22	-6280
28	-6281
71	-6282
77	-6283
bt	-6284
dd	-6285
fu	-6286
hl	-6287
ml	-6288
ni	-6289
si	-6290
za	-6291
ada	-6292
ags	-6293
aks	-6294
anz	-6295
att	-6296
bla	-6297
cup	-6298
dom	-6299
enn	-6300
fit	-6301
fol	-6302
gem	-6303
gly	-6304
hea	-6305
ids	-6306
ika	-6307
ikk	-6308
ita	-6309
iti	-6310
las	-6311
lat	-6312
lex	-6313
lon	-6314
lot	-6315
lyn	-6316
nda	-6317
nog	-6318
oms	-6319
pez	-6320
reg	-6321
rel	-6322
rem	-6323
ria	-6324
ril	-6325
tex	-6326
uel	-6327
uve	-6328
van	-6329
vil	-6330
vvy	-6331
▁35	-6332
▁54	-6333
▁56	-6334
▁64	-6335
▁74	-6336
▁aw	-6337
▁cm	-6338
▁gh	-6339
▁gp	-6340
▁hd	-6341
▁hr	-6342
▁jk	-6343
▁kc	-6344
▁mt	-6345
▁pd	-6346
▁qr	-6347
▁qw	-6348
▁rh	-6349
▁tp	-6350
▁ub	-6351
▁wr	-6352
▁xy	-6353
abur	-6354
aces	-6355
ache	-6356
ague	-6357
ancy	-6358
ardi	-6359
arse	-6360
atar	-6361
ativ	-6362
atra	-6363
berg	-6364
bing	-6365
bins	-6366
brew	-6367
chas	-6368
ched	-6369
cked	-6370
eers	-6371
elle	-6372
esto	-6373
fire	-6374
gena	-6375
gyle	-6376
heit	-6377
hren	-6378
ians	-6379
ichy	-6380
ilos	-6381
inex	-6382
inge	-6383
inoa	-6384
irly	-6385
ists	-6386
lays	-6387
ldog	-6388
leep	-6389
lete	-6390
list	-6391
mony	-6392
ndes	-6393
obel	-6394
ophy	-6395
oses	-6396
ower	-6397
peii	-6398
pies	-6399
ples	-6400
rant	-6401
rhea	-6402
rigs	-6403
roid	-6404
rola	-6405
soap	-6406
solu	-6407
tech	-6408
tend	-6409
town	-6410
ucco	-6411
ucer	-6412
ucet	-6413
udge	-6414
uity	-6415
ules	-6416
unge	-6417
urer	-6418
uroy	-6419
utes	-6420
utte	-6421
wise	-6422
ycho	-6423
yder	-6424
▁750	-6425
▁aff	-6426
▁alt	-6427
▁ann	-6428
▁atm	-6429
▁bbc	-6430
▁bol	-6431
▁boo	-6432
▁bot	-6433
▁cad	-6434
▁chr	-6435
▁cra	-6436
▁div	-6437
▁ebt	-6438
▁env	-6439
▁eup	-6440
▁fra	-6441
▁fut	-6442
▁got	-6443
▁hem	-6444
▁ide	-6445
▁ios	-6446
▁jes	-6447
▁jif	-6448
▁joy	-6449
▁kle	-6450
▁lab	-6451
▁lbs	-6452
▁muc	-6453
▁nam	-6454
▁pac	-6455
▁pei	-6456
▁psp	-6457
▁ran	-6458
▁sam	-6459
▁saw	-6460
▁sed	-6461
▁sep	-6462
▁spy	-6463
▁sut	-6464
▁tam	-6465
▁ton	-6466
▁tux	-6467
▁typ	-6468
▁ven	-6469
▁vio	-6470
▁vir	-6471
▁wad	-6472
▁wil	-6473
▁yes	-6474
abbit	-6475
acles	-6476
afina	-6477
alent	-6478
allen	-6479
antee	-6480
apped	-6481
arily	-6482
blano	-6483
breze	-6484
cerpt	-6485
coste	-6486
cycle	-6487
ected	-6488
elves	-6489
enery	-6490
ening	-6491
ently	-6492
eseat	-6493
esota	-6494
etary	-6495
flage	-6496
folio	-6497
fully	-6498
iator	-6499
ickey	-6500
ilton	-6501
inker	-6502
intst	-6503
iorno	-6504
ipher	-6505
isted	-6506
istex	-6507
itled	-6508
itute	-6509
ksika	-6510
mbian	-6511
melon	-6512
ndant	-6513
obile	-6514
ophen	-6515
organ	-6516
phane	-6517
pings	-6518
plant	-6519
ragon	-6520
ramid	-6521
ready	-6522
rican	-6523
saver	-6524
scent	-6525
shine	-6526
stada	-6527
steam	-6528
strip	-6529
track	-6530
ucked	-6531
ultry	-6532
ussin	-6533
uteed	-6534
watch	-6535
zania	-6536
▁1997	-6537
▁1998	-6538
▁abba	-6539
▁able	-6540
▁acet	-6541
▁andy	-6542
▁beck	-6543
▁bees	-6544
▁bike	-6545
▁bilt	-6546
▁buck	-6547
▁burt	-6548
▁bust	-6549
▁calf	-6550
▁cats	-6551
▁chai	-6552
▁chat	-6553
▁clar	-6554
▁cobb	-6555
▁coil	-6556
▁crew	-6557
▁cuff	-6558
▁dang	-6559
▁dead	-6560
▁dice	-6561
▁east	-6562
▁echo	-6563
▁emer	-6564
▁eras	-6565
▁even	-6566
▁expo	-6567
▁fair	-6568
▁felt	-6569
▁fist	-6570
▁fort	-6571
▁glit	-6572
▁guar	-6573
▁hano	-6574
▁hind	-6575
▁hint	-6576
▁hose	-6577
▁hulu	-6578
▁jenn	-6579
▁joel	-6580
▁junk	-6581
▁kikk	-6582
▁kill	-6583
▁kyle	-6584
▁lynx	-6585
▁mech	-6586
▁melt	-6587
▁mint	-6588
▁mood	-6589
▁moto	-6590
▁move	-6591
▁mugs	-6592
▁nick	-6593
▁odor	-6594
▁orch	-6595
▁pans	-6596
▁pave	-6597
▁penn	-6598
▁pent	-6599
▁poem	-6600
▁poly	-6601
▁pond	-6602
▁pour	-6603
▁pref	-6604
▁prev	-6605
▁priv	-6606
▁pura	-6607
▁reds	-6608
▁renu	-6609
▁ripp	-6610
▁robe	-6611
▁russ	-6612
▁sack	-6613
▁sage	-6614
▁sell	-6615
▁skit	-6616
▁sout	-6617
▁sunb	-6618
▁tacs	-6619
▁tail	-6620
▁tamp	-6621
▁tarp	-6622
▁task	-6623
▁tofu	-6624
▁town	-6625
▁tums	-6626
▁uses	-6627
▁vess	-6628
▁vida	-6629
▁wavy	-6630
arting	-6631
boards	-6632
coming	-6633
finger	-6634
gemite	-6635
gnancy	-6636
iction	-6637
iously	-6638
manent	-6639
manian	-6640
nation	-6641
obello	-6642
onally	-6643
ptacle	-6644
razole	-6645
remely	-6646
rogena	-6647
string	-6648
tended	-6649
ulated	-6650
vering	-6651
▁acard	-6652
▁advil	-6653
▁amber	-6654
▁angry	-6655
▁antac	-6656
▁april	-6657
▁assem	-6658
▁badly	-6659
▁beach	-6660
▁boats	-6661
▁brack	-6662
▁butts	-6663
▁camou	-6664
▁carne	-6665
▁categ	-6666
▁cello	-6667
▁chaps	-6668
▁claim	-6669
▁cloud	-6670
▁cobra	-6671
▁coral	-6672
▁craft	-6673
▁crash	-6674
▁curve	-6675
▁dated	-6676
▁devil	-6677
▁durac	-6678
▁edmal	-6679
▁event	-6680
▁exped	-6681
▁faced	-6682
▁flesh	-6683
▁flock	-6684
▁freak	-6685
▁freed	-6686
▁georg	-6687
▁gifts	-6688
▁globe	-6689
▁grape	-6690
▁helps	-6691
▁henry	-6692
▁homes	-6693
▁impro	-6694
▁inner	-6695
▁intel	-6696
▁knick	-6697
▁laure	-6698
▁layer	-6699
▁leafs	-6700
▁leash	-6701
▁limes	-6702
▁local	-6703
▁lopez	-6704
▁makes	-6705
▁merry	-6706
▁molec	-6707
▁opens	-6708
▁pecan	-6709
▁peppa	-6710
▁pesto	-6711
▁petco	-6712
▁peter	-6713
▁piles	-6714
▁plank	-6715
▁polys	-6716
▁puree	-6717
▁quant	-6718
▁reese	-6719
▁relle	-6720
▁remem	-6721
▁retro	-6722
▁roach	-6723
▁roots	-6724
▁sales	-6725
▁salon	-6726
▁satin	-6727
▁saver	-6728
▁savvy	-6729
▁scary	-6730
▁scram	-6731
▁shack	-6732
▁sites	-6733
▁skate	-6734
▁solar	-6735
▁soups	-6736
▁spout	-6737
▁staff	-6738
▁stage	-6739
▁stalk	-6740
▁steps	-6741
▁suspe	-6742
▁swiss	-6743
▁tapes	-6744
▁tempt	-6745
▁terry	-6746
▁timex	-6747
▁toned	-6748
▁treas	-6749
▁trous	-6750
▁trust	-6751
▁tulsi	-6752
▁valve	-6753
▁vichy	-6754
▁views	-6755
▁visit	-6756
▁voice	-6757
▁vtech	-6758
▁weber	-6759
▁wills	-6760
▁woody	-6761
▁wrong	-6762
aburger	-6763
cessary	-6764
cupines	-6765
ionship	-6766
ipation	-6767
keteers	-6768
logical	-6769
orizing	-6770
section	-6771
ulation	-6772
unction	-6773
▁accent	-6774
▁agenda	-6775
▁argyle	-6776
▁artist	-6777
▁ashley	-6778
▁asleep	-6779
▁babies	-6780
▁bander	-6781
▁baskin	-6782
▁breath	-6783
▁bricks	-6784
▁brulee	-6785
▁capped	-6786
▁carbon	-6787
▁casual	-6788
▁cheesy	-6789
▁coated	-6790
▁conven	-6791
▁cooper	-6792
▁cutout	-6793
▁darkly	-6794
▁decade	-6795
▁dented	-6796
▁dimens	-6797
▁donkey	-6798
▁eggnog	-6799
▁eleven	-6800
▁equate	-6801
▁errors	-6802
▁fahren	-6803
▁faucet	-6804
▁fenced	-6805
▁flamed	-6806
▁flecks	-6807
▁fruity	-6808
▁gaming	-6809
▁gently	-6810
▁gloria	-6811
▁graham	-6812
▁grainy	-6813
▁graphs	-6814
▁hannah	-6815
▁hebrew	-6816
▁houtte	-6817
▁inputs	-6818
▁kyolic	-6819
▁lounge	-6820
▁malays	-6821
▁market	-6822
▁maxell	-6823
▁missed	-6824
▁motion	-6825
▁multiv	-6826
▁neatly	-6827
▁onesie	-6828
▁origin	-6829
▁pajama	-6830
▁pastry	-6831
▁paused	-6832
▁philos	-6833
▁pickup	-6834
▁places	-6835
▁poorly	-6836
▁preser	-6837
▁primer	-6838
▁prizes	-6839
▁psycho	-6840
▁public	-6841
▁puzzle	-6842
▁quinoa	-6843
▁rabbit	-6844
▁radish	-6845
▁rather	-6846
▁rating	-6847
▁redeem	-6848
▁reduce	-6849
▁replay	-6850
▁ridges	-6851
▁rochas	-6852
▁rubies	-6853
▁shells	-6854
▁shiner	-6855
▁shoela	-6856
▁signed	-6857
▁skyrim	-6858
▁smells	-6859
▁snyder	-6860
▁spaces	-6861
▁spears	-6862
▁spirit	-6863
▁sprigs	-6864
▁sprint	-6865
▁squire	-6866
▁status	-6867
▁strewn	-6868
▁stuart	-6869
▁stucco	-6870
▁sutter	-6871
▁swirly	-6872
▁though	-6873
▁tinker	-6874
▁trophy	-6875
▁tucked	-6876
▁tussin	-6877
▁underw	-6878
▁valent	-6879
▁velvet	-6880
▁violet	-6881
▁waffle	-6882
▁whisky	-6883
▁wickes	-6884
▁wooded	-6885
▁worked	-6886
ironment	-6887
▁advance	-6888
▁affixed	-6889
▁african	-6890
▁already	-6891
▁amazing	-6892
▁amounts	-6893
▁arabian	-6894
▁backlit	-6895
▁bahrain	-6896
▁benecol	-6897
▁billing	-6898
▁blistex	-6899
▁booting	-6900
▁bottoms	-6901
▁boulder	-6902
▁bulldog	-6903
▁cadbury	-6904
▁carried	-6905
▁circuit	-6906
▁cluster	-6907
▁collard	-6908
▁congreg	-6909
▁cooling	-6910
▁cornish	-6911
▁couches	-6912
▁crayola	-6913
▁crumbed	-6914
▁crusted	-6915
▁eastern	-6916
▁elastic	-6917
▁england	-6918
▁excerpt	-6919
▁extract	-6920
▁febreze	-6921
▁fitness	-6922
▁flintst	-6923
▁flipped	-6924
▁foaming	-6925
▁forward	-6926
▁fringed	-6927
▁glitter	-6928
▁goldbra	-6929
▁greyish	-6930
▁hanover	-6931
▁harmony	-6932
▁holders	-6933
▁hydrant	-6934
▁jackson	-6935
▁jetpack	-6936
▁kernels	-6937
▁lacoste	-6938
▁letting	-6939
▁locator	-6940
▁magnets	-6941
▁meaning	-6942
▁meksika	-6943
▁minimal	-6944
▁montana	-6945
▁mucinex	-6946
▁neutral	-6947
▁nutella	-6948
▁oddball	-6949
▁oregano	-6950
▁pampers	-6951
▁patches	-6952
▁pendant	-6953
▁perched	-6954
▁petting	-6955
▁planner	-6956
▁playtex	-6957
▁poblano	-6958
▁pompeii	-6959
▁posters	-6960
▁pouches	-6961
▁poultry	-6962
▁prepare	-6963
▁pricing	-6964
▁profile	-6965
▁pyramid	-6966
▁raisins	-6967
▁rangers	-6968
▁refried	-6969
▁regards	-6970
▁remotes	-6971
▁replace	-6972
▁ripples	-6973
▁robbins	-6974
▁sauteed	-6975
▁scenery	-6976
▁seattle	-6977
▁shakers	-6978
▁skillet	-6979
▁skyline	-6980
▁stopper	-6981
▁suggest	-6982
▁tassels	-6983
▁teacher	-6984
▁tostada	-6985
▁trident	-6986
▁twitter	-6987
▁walkers	-6988
▁whiskey	-6989
▁woolite	-6990
aminophen	-6991
▁aquafina	-6992
▁barcodes	-6993
▁biltmore	-6994
▁boneless	-6995
▁bookmark	-6996
▁bordered	-6997
▁brooklyn	-6998
▁catalyst	-6999
▁centered	-7000
▁champion	-7001
▁chemical	-7002
▁cherries	-7003
▁corduroy	-7004
▁creation	-7005
▁creature	-7006
▁diarrhea	-7007
▁digiorno	-7008
▁duracell	-7009
▁engraved	-7010
▁everyone	-7011
▁forecast	-7012
▁hamilton	-7013
▁houseman	-7014
▁hovering	-7015
▁identify	-7016
▁independ	-7017
▁jennifer	-7018
▁kikkoman	-7019
▁loveseat	-7020
▁marriage	-7021
▁monetary	-7022
▁motorola	-7023
▁mustache	-7024
▁occupies	-7025
▁overcast	-7026
▁overlook	-7027
▁pancakes	-7028
▁parallel	-7029
▁pavement	-7030
▁platform	-7031
▁playroom	-7032
▁polished	-7033
▁portions	-7034
▁postcard	-7035
▁provided	-7036
▁provider	-7037
▁radiator	-7038
▁readable	-7039
▁recliner	-7040
▁reminder	-7041
▁skincare	-7042
▁softsoap	-7043
▁southern	-7044
▁speaking	-7045
▁strapped	-7046
▁sunshine	-7047
▁superior	-7048
▁tanzania	-7049
▁tarragon	-7050
▁toenails	-7051
▁toppings	-7052
▁trackpad	-7053
▁vaseline	-7054
▁vegemite	-7055
▁watchers	-7056
▁alongside	-7057
▁answering	-7058
▁applegate	-7059
▁baseboard	-7060
▁blackness	-7061
▁cancelled	-7062
▁christian	-7063
▁colombian	-7064
▁commander	-7065
▁cornbread	-7066
▁cosmetics	-7067
▁dalmatian	-7068
▁direction	-7069
▁documents	-7070
▁educators	-7071
▁energizer	-7072
▁extremely	-7073
▁favorites	-7074
▁following	-7075
▁forefront	-7076
▁geometric	-7077
▁guarantee	-7078
▁headlines	-7079
▁informing	-7080
▁involving	-7081
▁lemonades	-7082
▁licensing	-7083
▁miniature	-7084
▁minnesota	-7085
▁mountains	-7086
▁necessary	-7087
▁notebooks	-7088
▁notifying	-7089
▁paintings	-7090
▁partition	-7091
▁performed	-7092
▁permanent	-7093
▁portfolio	-7094
▁pregnancy	-7095
▁presented	-7096
▁primarily	-7097
▁purchased	-7098
▁religious	-7099
▁requiring	-7100
▁resembles	-7101
▁schweppes	-7102
▁scrambled	-7103
▁separated	-7104
▁sharpened	-7105
▁splotches	-7106
▁tasmanian	-7107
▁valentine	-7108
▁washcloth	-7109
▁antibiotic	-7110
▁associates	-7111
▁automobile	-7112
▁camouflage	-7113
▁cannelloni	-7114
▁cellophane	-7115
▁connecting	-7116
▁consisting	-7117
▁croissants	-7118
▁diagnostic	-7119
▁diagonally	-7120
▁drawstring	-7121
▁essentials	-7122
▁fahrenheit	-7123
▁forefinger	-7124
▁granulated	-7125
▁humidifier	-7126
▁magnifying	-7127
▁management	-7128
▁mechanical	-7129
▁meditation	-7130
▁membership	-7131
▁microsteam	-7132
▁motorcycle	-7133
▁mulberries	-7134
▁musketeers	-7135
▁neutrogena	-7136
▁nutritious	-7137
▁peppermint	-7138
▁philosophy	-7139
▁pillowcase	-7140
▁polysporin	-7141
▁porcupines	-7142
▁portobello	-7143
▁preference	-7144
▁presumably	-7145
▁receptacle	-7146
▁recyclable	-7147
▁restarting	-7148
▁soundtrack	-7149
▁steakhouse	-7150
▁substances	-7151
▁substitute	-7152
▁themselves	-7153
▁throughout	-7154
▁university	-7155
▁watermelon	-7156
▁wheelchair	-7157
▁wristwatch	-7158
▁blueberries	-7159
▁bookshelves	-7160
▁combination	-7161
▁concentrate	-7162
▁connections	-7163
▁controlling	-7164
▁distinguish	-7165
▁environment	-7166
▁flintstones	-7167
▁handwriting	-7168
▁inscription	-7169
▁leatherwood	-7170
▁masterpiece	-7171
▁photographs	-7172
▁replacement	-7173
▁screensaver	-7174
▁speedometer	-7175
▁touchscreen	-7176
▁whataburger	-7177
▁checkerboard	-7178
▁concentrated	-7179
▁confirmation	-7180
▁constitution	-7181
▁disinfecting	-7182
▁highlighting	-7183
▁horizontally	-7184
▁intersection	-7185
▁manufactured	-7186
▁manufacturer	-7187
▁multivitamin	-7188
▁presentation	-7189
▁registration	-7190
▁requirements	-7191
▁acetaminophen	-7192
▁congregations	-7193
▁manufacturing	-7194
▁specifications	-7195
▁characteristics	-7196
12	-7197
24	-7198
41	-7199
43	-7200
45	-7201
62	-7202
bl	-7203
gl	-7204
ku	-7205
ti	-7206
ww	-7207
xa	-7208
420	-7209
aft	-7210
aid	-7211
arp	-7212
ava	-7213
bak	-7214
bal	-7215
bar	-7216
bby	-7217
bro	-7218
cky	-7219
dez	-7220
din	-7221
due	-7222
edy	-7223
eer	-7224
ems	-7225
fas	-7226
fox	-7227
gio	-7228
hon	-7229
how	-7230
hum	-7231
ibo	-7232
ifa	-7233
ifi	-7234
inc	-7235
iro	-7236
jun	-7237
kal	-7238
ker	-7239
ksw	-7240
lay	-7241
laz	-7242
lim	-7243
mar	-7244
men	-7245
mic	-7246
mme	-7247
non	-7248
nts	-7249
och	-7250
off	-7251
ono	-7252
oop	-7253
opt	-7254
orn	-7255
our	-7256
pin	-7257
ptp	-7258
rex	-7259
sch	-7260
sts	-7261
uez	-7262
ura	-7263
uxe	-7264
vac	-7265
wis	-7266
woo	-7267
yal	-7268
zes	-7269
zit	-7270
▁33	-7271
▁38	-7272
▁39	-7273
▁45	-7274
▁59	-7275
▁65	-7276
▁67	-7277
▁73	-7278
▁79	-7279
▁aa	-7280
▁az	-7281
▁dm	-7282
▁ea	-7283
▁eu	-7284
▁gb	-7285
▁gm	-7286
▁lb	-7287
▁mb	-7288
▁mk	-7289
▁ms	-7290
▁ox	-7291
▁ti	-7292
▁uk	-7293
▁vi	-7294
▁ye	-7295
acho	-7296
adol	-7297
afee	-7298
agen	-7299
akis	-7300
ales	-7301
anda	-7302
ands	-7303
angs	-7304
ante	-7305
anth	-7306
aque	-7307
asse	-7308
atre	-7309
avid	-7310
ayou	-7311
coal	-7312
coln	-7313
coms	-7314
dger	-7315
eder	-7316
elli	-7317
emum	-7318
enex	-7319
ento	-7320
ernh	-7321
erty	-7322
ever	-7323
gear	-7324
ggle	-7325
girl	-7326
heat	-7327
hill	-7328
iary	-7329
idel	-7330
igan	-7331
ikka	-7332
ills	-7333
inum	-7334
iser	-7335
ived	-7336
izab	-7337
kist	-7338
knob	-7339
leic	-7340
mary	-7341
masi	-7342
meat	-7343
mont	-7344
nels	-7345
ober	-7346
odka	-7347
olas	-7348
olph	-7349
onge	-7350
onus	-7351
otch	-7352
poix	-7353
prin	-7354
quin	-7355
reat	-7356
repo	-7357
road	-7358
rons	-7359
rose	-7360
saic	-7361
sive	-7362
sser	-7363
stre	-7364
tles	-7365
ttle	-7366
uces	-7367
ucum	-7368
umes	-7369
umph	-7370
unic	-7371
uous	-7372
ural	-7373
usta	-7374
uten	-7375
viro	-7376
wasz	-7377
xand	-7378
ysco	-7379
zard	-7380
zoni	-7381
zzle	-7382
▁000	-7383
▁101	-7384
▁103	-7385
▁107	-7386
▁160	-7387
▁225	-7388
▁330	-7389
▁abs	-7390
▁amy	-7391
▁apf	-7392
▁apo	-7393
▁atv	-7394
▁bet	-7395
▁cop	-7396
▁dak	-7397
▁das	-7398
▁der	-7399
bbly	-7400
▁eco	-7401
▁eff	-7402
▁ell	-7403
▁emi	-7404
▁est	-7405
▁gas	-7406
▁gio	-7407
▁gnc	-7408
▁god	-7409
▁gym	-7410
▁jas	-7411
▁kap	-7412
▁lad	-7413
▁lem	-7414
▁let	-7415
▁lob	-7416
▁mer	-7417
▁mil	-7418
▁mlb	-7419
▁nec	-7420
▁nib	-7421
▁nin	-7422
▁ott	-7423
▁pdf	-7424
▁pip	-7425
▁pun	-7426
▁rac	-7427
▁reb	-7428
▁riy	-7429
▁rue	-7430
▁rye	-7431
▁sie	-7432
▁sno	-7433
▁tig	-7434
▁vap	-7435
▁von	-7436
▁wid	-7437
abags	-7438
aceut	-7439
acked	-7440
agara	-7441
allow	-7442
amoas	-7443
anair	-7444
anzia	-7445
asile	-7446
atomy	-7447
avera	-7448
child	-7449
clone	-7450
color	-7451
cture	-7452
cular	-7453
elcro	-7454
elett	-7455
emade	-7456
entsy	-7457
estic	-7458
eties	-7459
gento	-7460
grass	-7461
icaps	-7462
icial	-7463
igned	-7464
igner	-7465
inair	-7466
inart	-7467
inkie	-7468
irard	-7469
ished	-7470
isley	-7471
istor	-7472
ities	-7473
itude	-7474
lando	-7475
ledge	-7476
lenol	-7477
mepam	-7478
oldem	-7479
ordan	-7480
poses	-7481
quets	-7482
rawak	-7483
ribed	-7484
roach	-7485
rored	-7486
semme	-7487
serts	-7488
shack	-7489
sharp	-7490
soles	-7491
ssoms	-7492
store	-7493
tched	-7494
uated	-7495
umble	-7496
urban	-7497
urbon	-7498
ustle	-7499
brook	-7500
thorn	-7501
uston	-7502
uting	-7503
vanni	-7504
verse	-7505
yalty	-7506
yster	-7507
▁1991	-7508
▁2006	-7509
▁abra	-7510
▁acer	-7511
▁acne	-7512
▁aged	-7513
▁alle	-7514
▁alth	-7515
▁avon	-7516
▁bart	-7517
▁bass	-7518
▁berk	-7519
▁bins	-7520
▁blob	-7521
▁bloo	-7522
▁boca	-7523
▁boom	-7524
▁came	-7525
▁camo	-7526
▁cant	-7527
▁cham	-7528
▁chap	-7529
▁clad	-7530
▁cole	-7531
▁come	-7532
▁corp	-7533
▁corr	-7534
▁cows	-7535
▁crad	-7536
▁craw	-7537
▁cuts	-7538
▁dave	-7539
▁dime	-7540
▁dock	-7541
▁done	-7542
▁dosa	-7543
▁elim	-7544
▁elle	-7545
▁elmo	-7546
▁enco	-7547
▁etch	-7548
▁exit	-7549
▁fifa	-7550
▁fift	-7551
▁frit	-7552
▁gast	-7553
▁gems	-7554
▁ging	-7555
▁glen	-7556
▁glow	-7557
▁guys	-7558
▁heav	-7559
▁hero	-7560
▁huge	-7561
▁hvac	-7562
▁imag	-7563
▁insc	-7564
▁jaco	-7565
▁jans	-7566
▁java	-7567
▁jeff	-7568
▁kare	-7569
▁kart	-7570
▁kite	-7571
▁kohl	-7572
▁lacy	-7573
▁last	-7574
▁lego	-7575
▁loin	-7576
▁lube	-7577
▁macy	-7578
▁mall	-7579
▁mile	-7580
▁mire	-7581
▁mist	-7582
▁mora	-7583
▁mors	-7584
▁moth	-7585
▁muir	-7586
▁nesp	-7587
▁ness	-7588
▁nitr	-7589
▁nonp	-7590
▁oils	-7591
▁omep	-7592
▁pare	-7593
▁paul	-7594
▁peab	-7595
▁pets	-7596
▁phen	-7597
▁phil	-7598
▁pict	-7599
▁pigs	-7600
▁pptp	-7601
▁pred	-7602
▁pulp	-7603
▁ragu	-7604
▁rate	-7605
▁repe	-7606
▁reus	-7607
▁reve	-7608
▁risk	-7609
▁roku	-7610
▁role	-7611
▁rust	-7612
▁ryes	-7613
▁sang	-7614
▁sara	-7615
▁save	-7616
▁scat	-7617
▁scra	-7618
▁sequ	-7619
▁sill	-7620
▁slat	-7621
▁spam	-7622
▁spor	-7623
▁swee	-7624
▁tear	-7625
▁tins	-7626
▁tint	-7627
▁tire	-7628
▁todd	-7629
▁torn	-7630
▁trib	-7631
▁trig	-7632
▁trin	-7633
▁unat	-7634
▁unav	-7635
▁vick	-7636
▁void	-7637
▁wats	-7638
▁wifi	-7639
▁wipe	-7640
▁xfin	-7641
▁yves	-7642
▁zinc	-7643
▁ziti	-7644
aining	-7645
alance	-7646
antasy	-7647
aratus	-7648
athers	-7649
casing	-7650
cedure	-7651
celona	-7652
cessed	-7653
engers	-7654
entary	-7655
entyne	-7656
erside	-7657
estant	-7658
estern	-7659
estive	-7660
estone	-7661
estyle	-7662
idward	-7663
indeer	-7664
intzes	-7665
isters	-7666
itical	-7667
lescop	-7668
lights	-7669
logram	-7670
mbling	-7671
onging	-7672
prints	-7673
ricate	-7674
riguez	-7675
tember	-7676
teness	-7677
terior	-7678
unched	-7679
weiser	-7680
woofer	-7681
wrench	-7682
xander	-7683
ysanth	-7684
▁adams	-7685
▁admin	-7686
▁advoc	-7687
▁afrin	-7688
▁alkal	-7689
▁aside	-7690
▁balti	-7691
▁basin	-7692
▁bayou	-7693
▁begin	-7694
▁belle	-7695
▁bernh	-7696
▁blade	-7697
▁blanc	-7698
▁bonus	-7699
▁brief	-7700
▁bulbs	-7701
▁cajun	-7702
▁calls	-7703
▁carlo	-7704
▁chime	-7705
▁chord	-7706
▁clamp	-7707
▁clark	-7708
▁coach	-7709
▁coded	-7710
▁colon	-7711
▁costa	-7712
▁crate	-7713
▁crisp	-7714
▁cucum	-7715
▁curly	-7716
▁daisy	-7717
▁david	-7718
▁decaf	-7719
▁dehum	-7720
▁demon	-7721
▁discs	-7722
▁downy	-7723
▁elong	-7724
▁emerg	-7725
▁falls	-7726
▁force	-7727
▁forty	-7728
▁fries	-7729
▁fudge	-7730
▁funny	-7731
▁gives	-7732
▁grade	-7733
▁grate	-7734
▁groom	-7735
▁harve	-7736
▁hello	-7737
▁hired	-7738
▁homet	-7739
▁hutch	-7740
▁inten	-7741
▁irish	-7742
▁irrit	-7743
▁jesus	-7744
▁jimmy	-7745
▁johns	-7746
▁kings	-7747
▁knuck	-7748
▁kwasz	-7749
▁laura	-7750
▁layed	-7751
▁leads	-7752
▁leans	-7753
▁learn	-7754
▁lewis	-7755
▁libby	-7756
▁lives	-7757
▁lucky	-7758
▁macro	-7759
▁magic	-7760
▁major	-7761
▁medal	-7762
▁metro	-7763
▁minus	-7764
▁modem	-7765
▁mores	-7766
▁mulch	-7767
▁nacho	-7768
▁names	-7769
▁nativ	-7770
▁north	-7771
▁onken	-7772
▁orbit	-7773
▁packs	-7774
▁panda	-7775
▁perry	-7776
▁pinky	-7777
▁pinto	-7778
▁plays	-7779
▁pleas	-7780
▁prime	-7781
▁prize	-7782
▁promo	-7783
▁prove	-7784
▁puffs	-7785
▁pullo	-7786
▁quite	-7787
▁racks	-7788
▁recon	-7789
▁refer	-7790
▁remar	-7791
▁reply	-7792
▁reset	-7793
▁rocky	-7794
▁ronny	-7795
▁rossi	-7796
▁sanct	-7797
▁schem	-7798
▁shell	-7799
▁sided	-7800
▁sight	-7801
▁simpl	-7802
▁sinus	-7803
▁sixty	-7804
▁smuck	-7805
▁sofas	-7806
▁south	-7807
▁spher	-7808
▁stems	-7809
▁surge	-7810
▁swift	-7811
▁swipe	-7812
▁sysco	-7813
▁tales	-7814
▁tangy	-7815
▁tikka	-7816
▁tires	-7817
▁topic	-7818
▁topps	-7819
▁torch	-7820
▁trays	-7821
▁twine	-7822
▁union	-7823
▁villa	-7824
▁viney	-7825
▁virus	-7826
▁vizio	-7827
▁vodka	-7828
▁wears	-7829
▁weeds	-7830
▁wipes	-7831
▁wraps	-7832
▁wrest	-7833
▁years	-7834
▁yeast	-7835
▁zatar	-7836
ability	-7837
anicals	-7838
atrends	-7839
counted	-7840
ederate	-7841
elettes	-7842
etition	-7843
honious	-7844
inished	-7845
ishable	-7846
ishment	-7847
istinct	-7848
izabeth	-7849
kswagen	-7850
ultants	-7851
uration	-7852
▁actual	-7853
▁adorns	-7854
▁advent	-7855
▁advice	-7856
▁alando	-7857
▁altern	-7858
▁angles	-7859
▁arawak	-7860
▁assist	-7861
▁bagged	-7862
▁bakers	-7863
▁banden	-7864
▁barrel	-7865
▁bigger	-7866
▁blades	-7867
▁bleach	-7868
▁bolded	-7869
▁bother	-7870
▁buckle	-7871
▁burned	-7872
▁capers	-7873
▁channa	-7874
▁client	-7875
▁clocks	-7876
▁coarse	-7877
▁coiled	-7878
▁column	-7879
▁corder	-7880
▁corned	-7881
▁cosopt	-7882
▁cutter	-7883
▁dakota	-7884
▁damage	-7885
▁dannon	-7886
▁dasani	-7887
▁declar	-7888
▁decong	-7889
▁deluxe	-7890
▁demasi	-7891
▁detail	-7892
▁detect	-7893
▁deuces	-7894
▁dodger	-7895
▁dosage	-7896
▁dragon	-7897
▁edging	-7898
▁emblaz	-7899
▁emeril	-7900
▁encoun	-7901
▁enough	-7902
▁enroll	-7903
▁enviro	-7904
▁eraser	-7905
▁examin	-7906
▁expand	-7907
▁failed	-7908
▁fairly	-7909
▁floppy	-7910
▁fluore	-7911
▁flutes	-7912
▁folger	-7913
▁foojoy	-7914
▁formal	-7915
▁frying	-7916
▁grains	-7917
▁grapes	-7918
▁handic	-7919
▁haribo	-7920
▁harris	-7921
▁hearty	-7922
▁heated	-7923
▁herdez	-7924
▁herman	-7925
▁heroes	-7926
▁histor	-7927
▁houten	-7928
▁humans	-7929
▁hustle	-7930
▁insign	-7931
▁island	-7932
▁jordan	-7933
▁khakis	-7934
▁knacks	-7935
▁layout	-7936
▁league	-7937
▁lenses	-7938
▁lessin	-7939
▁levels	-7940
▁lining	-7941
▁lizard	-7942
▁louver	-7943
▁lovely	-7944
▁lucoms	-7945
▁luxury	-7946
▁mainly	-7947
▁margin	-7948
▁marion	-7949
▁mascot	-7950
▁mcafee	-7951
▁median	-7952
▁mendes	-7953
▁mexico	-7954
▁mixing	-7955
▁mosaic	-7956
▁native	-7957
▁needle	-7958
▁	-7959
e	-7960
a	-7961
o	-7962
t	-7963
n	-7964
i	-7965
r	-7966
s	-7967
l	-7968
c	-7969
h	-7970
d	-7971
p	-7972
f	-7973
b	-7974
g	-7975
w	-7976
u	-7977
m	-7978
k	-7979
y	-7980
v	-7981
x	-7982
z	-7983
j	-7984
q	-7985
0	-7986
2	-7987
1	-7988
5	-7989
3	-7990
4	-7991
7	-7992
8	-7993
6	-7994
9	-7995
